'<pad>'
'<EOS>'
'the_'
'and_'
'. _'
', _'
'I_'
'a_'
'to_'
''_'
'was_'
'of_'
'is_'
'it_'
'for_'
'in_'
'.  _'
'that_'
'The_'
'my_'
'with_'
'you_'
's_'
'on_'
't_'
'._'
'but_'
'this_'
'have_'
'they_'
'had_'
'we_'
'not_'
'were_'
'are_'
'at_'
'_'
'so_'
'place_'
'be_'
'me_'
'food_'
'! _'
'good_'
'as_'
'very_'
'out_'
'here_'
'great_'
'all_'
'.\10;\10;_'
'-_'
'there_'
'We_'
'time_'
'like_'
' (_'
'get_'
'service_'
'It_'
'just_'
'from_'
'our_'
'back_'
'up_'
'one_'
'or_'
'an_'
'would_'
'their_'
'can_'
'if_'
'about_'
'go_'
'They_'
'. \10;\10;_'
'will_'
'when_'
'really_'
'been_'
'your_'
'which_'
'!_'
'This_'
'what_'
'us_'
've_'
'them_'
'some_'
'more_'
'by_'
'only_'
'he_'
'no_'
'because_'
'My_'
'got_'
'm_'
'also_'
'even_'
'she_'
'other_'
'has_'
'do_'
' $_'
'nice_'
') _'
'too_'
'well_'
'don_'
' "_'
' - _'
'always_'
'best_'
'did_'
'staff_'
'than_'
'\\/_'
'friendly_'
'her_'
'didn_'
'order_'
'came_'
'could_'
'ordered_'
'restaurant_'
'people_'
'over_'
'never_'
'little_'
'after_'
'come_'
'try_'
'd_'
'much_'
'love_'
'experience_'
'first_'
'went_'
'again_'
'2_'
'made_'
'make_'
'who_'
'going_'
'i_'
'know_'
'off_'
'5_'
'definitely_'
'delicious_'
'how_'
'said_'
're_'
'menu_'
'amazing_'
'recommend_'
'day_'
'chicken_'
'If_'
'way_'
'!  _'
'..._'
'am_'
'any_'
'better_'
'right_'
'before_'
'then_'
'two_'
'" _'
'want_'
'wait_'
'ever_'
'take_'
'new_'
'pretty_'
'say_'
'night_'
'around_'
'down_'
'see_'
'  _'
'3_'
'sure_'
'few_'
'told_'
'work_'
'He_'
' & _'
'So_'
'his_'
'.\10;_'
'minutes_'
'bar_'
'There_'
'still_'
'Vegas_'
'... _'
'think_'
'took_'
'fresh_'
'room_'
'give_'
'times_'
'She_'
'Great_'
'eat_'
'price_'
'A_'
'You_'
'asked_'
'location_'
'find_'
'll_'
'table_'
'area_'
': _'
'next_'
'And_'
'sauce_'
'many_'
'e_'
'since_'
'every_'
'now_'
'into_'
'pizza_'
'4_'
'everything_'
'most_'
'ing_'
'while_'
'another_'
'being_'
'ed_'
'customer_'
'bad_'
'y_'
'small_'
'bit_'
'lot_'
'something_'
'cheese_'
'home_'
'where_'
'lunch_'
'wasn_'
'meal_'
'But_'
'long_'
'1_'
'wanted_'
'last_'
'. \10;_'
'10_'
'looking_'
'feel_'
'? _'
'dinner_'
'need_'
'worth_'
'When_'
'tried_'
'thing_'
'side_'
'him_'
'car_'
'though_'
'happy_'
'salad_'
'awesome_'
'clean_'
'years_'
'different_'
'done_'
'drinks_'
'quality_'
'store_'
'should_'
'Not_'
'both_'
'enough_'
'super_'
'found_'
'away_'
'called_'
'favorite_'
'hot_'
'check_'
'visit_'
'same_'
'things_'
'hour_'
'left_'
'prices_'
'big_'
'excellent_'
'.  \10;\10;_'
'drink_'
'). _'
'look_'
'friends_'
'!\10;\10;_'
'server_'
'taste_'
'top_'
'\10;_'
'free_'
'coming_'
'family_'
'fries_'
'places_'
'stars_'
'perfect_'
'through_'
'care_'
'n_'
'full_'
'coffee_'
'sweet_'
'job_'
'meat_'
'call_'
'its_'
'anything_'
'atmosphere_'
'friend_'
'getting_'
'burger_'
'business_'
'actually_'
'gave_'
'selection_'
'old_'
'else_'
'Very_'
'put_'
'), _'
'these_'
'ask_'
'line_'
'able_'
'decided_'
'use_'
'thought_'
'Our_'
'money_'
'rice_'
'tasty_'
'front_'
'used_'
'After_'
'beer_'
'kind_'
'busy_'
'breakfast_'
'each_'
'!! _'
'special_'
'without_'
'spot_'
'nothing_'
'fun_'
'quite_'
'sushi_'
'review_'
'house_'
'manager_'
'sandwich_'
'; _'
'flavor_'
'hotel_'
'large_'
'let_'
'All_'
'Service_'
'far_'
'why_'
'inside_'
'pay_'
'dish_'
'- _'
'water_'
'helpful_'
'shop_'
'needed_'
'husband_'
'tell_'
'looked_'
'half_'
'fried_'
'reviews_'
'No_'
'bread_'
'For_'
'30_'
'o_'
'hours_'
'20_'
'open_'
'show_'
'hair_'
'once_'
'items_'
'town_'
'couple_'
'person_'
'cream_'
'es_'
'week_'
'As_'
'those_'
'everyone_'
'such_'
'probably_'
'having_'
'6_'
'hard_'
'huge_'
'dishes_'
'fast_'
'waiting_'
'end_'
'What_'
'disappointed_'
'soup_'
'highly_'
'owner_'
'help_'
'quick_'
'loved_'
'almost_'
'high_'
'someone_'
'less_'
'least_'
'outside_'
'.   _'
'beef_'
'year_'
'couldn_'
'enjoyed_'
'later_'
'In_'
'days_'
'cooked_'
'won_'
'part_'
':_'
'during_'
'usually_'
'That_'
'must_'
'wonderful_'
'does_'
'star_'
'trying_'
'Also_'
'whole_'
'fish_'
'ice_'
'walk_'
'served_'
'Food_'
'steak_'
'options_'
'15_'
'.. _'
'company_'
'waitress_'
'guy_'
'Their_'
'own_'
'felt_'
'extra_'
'enjoy_'
'tasted_'
'phone_'
'point_'
'anyone_'
'door_'
'fantastic_'
'tables_'
'several_'
'close_'
'walked_'
'until_'
'extremely_'
'spicy_'
'r_'
'pork_'
'restaurants_'
'eating_'
'One_'
'wine_'
'stay_'
'deal_'
'makes_'
'cool_'
'absolutely_'
'name_'
'wrong_'
'\10;\10;_'
'especially_'
'wife_'
'stop_'
'three_'
'doesn_'
'guys_'
'brought_'
'comes_'
'started_'
'dessert_'
'return_'
'course_'
'kids_'
'er_'
'customers_'
'professional_'
'cut_'
'keep_'
'working_'
'Just_'
'today_'
'second_'
'leave_'
'music_'
'8_'
'cold_'
'7_'
'finally_'
'tea_'
'shrimp_'
'doing_'
'problem_'
'bring_'
'seemed_'
'!!! _'
'party_'
'Good_'
'arrived_'
'drive_'
'Overall_'
'isn_'
'ago_'
'already_'
'parking_'
'...._'
'dining_'
'may_'
'making_'
'live_'
'start_'
'strip_'
'decent_'
'group_'
'Love_'
'saw_'
'yet_'
'offer_'
'plate_'
'Dr_'
'local_'
'sit_'
'office_'
'reason_'
'myself_'
'beautiful_'
'pick_'
'man_'
'appointment_'
'reasonable_'
'easy_'
'style_'
'attentive_'
'size_'
'chocolate_'
'waiter_'
'instead_'
'late_'
'either_'
'maybe_'
'! \10;\10;_'
'However_'
'wouldn_'
'rude_'
'stuff_'
'First_'
'tacos_'
'quickly_'
'real_'
'Las_'
'waited_'
',  _'
'' _'
'regular_'
'might_'
'fan_'
'amount_'
'wish_'
'seated_'
'trip_'
'buy_'
'ok_'
'needs_'
'ly_'
'Everything_'
'soon_'
'expect_'
'Then_'
'set_'
'fact_'
'paid_'
'impressed_'
'seen_'
'liked_'
'dog_'
'ended_'
'etc_'
'cheap_'
'red_'
'portions_'
'morning_'
'50_'
'past_'
'entire_'
'!!_'
'sat_'
'Don_'
'received_'
'perfectly_'
'charge_'
'cake_'
'months_'
'life_'
'fine_'
'change_'
'ready_'
'expensive_'
'ate_'
'Thank_'
'decor_'
'comfortable_'
'rolls_'
'short_'
'Definitely_'
'buffet_'
'de_'
'Had_'
'variety_'
'chips_'
'looks_'
'seating_'
'pool_'
'Will_'
'dry_'
'roll_'
'bacon_'
'believe_'
'light_'
'Best_'
'warm_'
'recommended_'
'often_'
'card_'
'On_'
'under_'
'kept_'
'given_'
'Now_'
'early_'
'floor_'
'taking_'
'however_'
' '_'
'employees_'
'seems_'
'wings_'
'street_'
'offered_'
'available_'
'en_'
'lady_'
'knew_'
'run_'
'bill_'
'mind_'
',_'
'l_'
'Saturday_'
'flavors_'
'patio_'
'priced_'
'Thai_'
'die_'
'counter_'
'seem_'
'9_'
'list_'
'lots_'
'choice_'
'plus_'
'worst_'
'gets_'
'completely_'
'At_'
'kitchen_'
'?  _'
'twice_'
').  _'
'weeks_'
'Oh_'
'Well_'
'Yelp_'
'between_'
'portion_'
'green_'
'serve_'
'glad_'
' _'
'slow_'
'weekend_'
'girl_'
'guess_'
'cost_'
'00_'
'sitting_'
'.._'
' , _'
'white_'
'across_'
'gone_'
'choose_'
'rooms_'
'Went_'
'NOT_'
'Chicken_'
'Even_'
'others_'
'month_'
'space_'
'S_'
'burgers_'
'rather_'
'taken_'
'Mexican_'
'bowl_'
'egg_'
'near_'
'yummy_'
'bite_'
'along_'
'issue_'
'heard_'
'behind_'
'% _'
'within_'
'type_'
'main_'
'moved_'
'evening_'
'horrible_'
'birthday_'
'12_'
'Sunday_'
'ordering_'
'itself_'
'und_'
'add_'
'due_'
'son_'
'crispy_'
'appetizer_'
'remember_'
'view_'
'plenty_'
'glass_'
'sandwiches_'
'surprised_'
'understand_'
'helped_'
'Thanks_'
'rest_'
'simple_'
' . _'
'terrible_'
'saying_'
'eggs_'
'worked_'
'immediately_'
'haven_'
'potatoes_'
'ng_'
'okay_'
'hand_'
'questions_'
'brunch_'
'tip_'
'Italian_'
'pleasant_'
'overall_'
'salon_'
'bought_'
'expected_'
'number_'
'totally_'
'pasta_'
'stopped_'
'fix_'
'exactly_'
'ones_'
'walking_'
'boyfriend_'
'orders_'
'Phoenix_'
'Friday_'
'nails_'
'Chinese_'
'BBQ_'
'To_'
'yourself_'
'ingredients_'
'minute_'
'knowledgeable_'
'together_'
'prepared_'
'opened_'
'hit_'
'average_'
'!\10;_'
'massage_'
'packed_'
'noodles_'
'desk_'
'date_'
'unique_'
'garlic_'
'oil_'
'recently_'
'although_'
'grilled_'
'le_'
'authentic_'
'servers_'
'potato_'
'watch_'
'weren_'
'g_'
'four_'
'giving_'
'talk_'
'forward_'
'crab_'
'Really_'
'pieces_'
'--_'
'read_'
'option_'
'soft_'
'sign_'
'w_'
'including_'
'truly_'
'!!!_'
'literally_'
'While_'
'longer_'
'above_'
'game_'
'empty_'
'online_'
'25_'
'flavorful_'
'salsa_'
'showed_'
'noticed_'
'head_'
'beans_'
'mean_'
'takes_'
'h_'
'issues_'
'checked_'
'greeted_'
'butter_'
'level_'
'move_'
'tender_'
'feeling_'
'eaten_'
'hands_'
'D_'
'reservation_'
'located_'
'city_'
'per_'
'daughter_'
'club_'
'salmon_'
'Both_'
'idea_'
'seafood_'
'anywhere_'
'beers_'
'paying_'
'mouth_'
'cute_'
'added_'
'Nice_'
'delivery_'
'spend_'
'piece_'
'hope_'
'process_'
'100_'
'Would_'
'based_'
'choices_'
'poor_'
'world_'
'bartender_'
'says_'
'stayed_'
'chef_'
'Highly_'
'meals_'
'yes_'
'five_'
'ambiance_'
'spent_'
'Can_'
'turned_'
'low_'
'goes_'
'finish_'
'talking_'
'seat_'
'excited_'
'attention_'
'treat_'
'beyond_'
'black_'
'filled_'
'.... _'
'shopping_'
'mention_'
'u_'
'case_'
'play_'
', "_'
'pricey_'
'40_'
'Yes_'
'bland_'
'explained_'
'share_'
'charged_'
'al_'
'Came_'
'fair_'
'45_'
'loud_'
'cannot_'
'plates_'
' -- _'
'using_'
'happened_'
'rs_'
'New_'
'closed_'
'hungry_'
'11_'
'services_'
'credit_'
'specials_'
'. (_'
'k_'
'chance_'
'class_'
'dirty_'
'non_'
'future_'
'honest_'
'(_'
'aren_'
'asking_'
'wedding_'
'girls_'
'visiting_'
'bed_'
'toppings_'
'wall_'
'value_'
'crust_'
'sometimes_'
'downtown_'
'Everyone_'
'management_'
'Every_'
'team_'
'simply_'
'single_'
' \10;_'
'ers_'
'sent_'
'hear_'
'cup_'
'owners_'
'curry_'
'T_'
'face_'
'casino_'
'dogs_'
'medium_'
'nail_'
'Excellent_'
'burrito_'
'From_'
'appetizers_'
'lobster_'
'French_'
'". _'
'Maybe_'
'These_'
'box_'
'changed_'
'c_'
'incredible_'
'park_'
'With_'
'finished_'
'sides_'
'la_'
'interesting_'
'afternoon_'
'picked_'
'products_'
'outstanding_'
'middle_'
'attitude_'
'99_'
'book_'
'purchase_'
'filling_'
'min_'
'patient_'
'et_'
'Amazing_'
'Toronto_'
'plan_'
'Only_'
'seats_'
'Go_'
'Never_'
'school_'
'miss_'
'taco_'
'please_'
'crowded_'
'mom_'
'color_'
'fixed_'
'vibe_'
'total_'
'bottle_'
'bathroom_'
'sausage_'
'item_'
'running_'
'tastes_'
'lovely_'
'onion_'
'pleased_'
'eye_'
'Some_'
'Staff_'
'stand_'
'tasting_'
'salty_'
'knows_'
'woman_'
'healthy_'
'est_'
'young_'
'returning_'
'window_'
'sell_'
'grab_'
'corn_'
'Was_'
'chose_'
'works_'
'touch_'
'cash_'
'der_'
'Once_'
'ribs_'
'seeing_'
'THE_'
'visited_'
'desserts_'
'Do_'
'serving_'
' ($_'
'write_'
'matter_'
'treated_'
'included_'
'building_'
'speak_'
'tomato_'
'true_'
'personal_'
'mix_'
'mine_'
'crowd_'
'salads_'
'thin_'
'crazy_'
'cleaning_'
'honestly_'
'thank_'
'veggies_'
'somewhere_'
'yelp_'
'standard_'
'satisfied_'
'Scottsdale_'
'leaving_'
'opinion_'
'pulled_'
'multiple_'
'baked_'
'mins_'
'sales_'
'Since_'
'possible_'
'cook_'
'ahead_'
'event_'
'establishment_'
'met_'
'easily_'
'onions_'
'vegetarian_'
'thinking_'
'mall_'
'dark_'
'toast_'
'basically_'
'unless_'
'summer_'
'gem_'
'p_'
'welcoming_'
'neighborhood_'
'employee_'
'seriously_'
'lost_'
'sorry_'
'hostess_'
'joint_'
'." _'
'complaint_'
'milk_'
'turn_'
'Although_'
'section_'
'gotten_'
'efficient_'
'incredibly_'
'waste_'
'fruit_'
'oh_'
'vegan_'
'shared_'
'tiny_'
'upon_'
'Awesome_'
'bag_'
'system_'
'certainly_'
'air_'
'rare_'
'Its_'
'whatever_'
'dollars_'
'sauces_'
'Pizza_'
'playing_'
'ce_'
'dressing_'
'slightly_'
'stores_'
'staying_'
'Wow_'
'forgot_'
'delivered_'
'pictures_'
'appreciate_'
'How_'
'supposed_'
'mentioned_'
'seasoned_'
'lack_'
'fairly_'
'mixed_'
'center_'
'repair_'
'notch_'
'x_'
'st_'
'clearly_'
'typical_'
'doctor_'
'except_'
'accommodating_'
'ist_'
'generous_'
'moving_'
'te_'
'disappointing_'
'frozen_'
'surprise_'
'purchased_'
'complete_'
'24_'
'provided_'
'Super_'
'deep_'
'combo_'
'hold_'
'modern_'
'usual_'
'polite_'
'lived_'
'pain_'
'smile_'
'pie_'
'games_'
'addition_'
'awful_'
'alone_'
'environment_'
'considering_'
'Always_'
'thick_'
'ramen_'
'homemade_'
'.  \10;_'
'Asian_'
'tuna_'
'C_'
'airport_'
'affordable_'
'wash_'
'chairs_'
'checking_'
'forget_'
'insurance_'
'original_'
'note_'
'guests_'
'fee_'
'expectations_'
'Unfortunately_'
').\10;\10;_'
'expecting_'
'sort_'
'lamb_'
'Most_'
'situation_'
'problems_'
'heat_'
'craving_'
'corner_'
'ton_'
'gym_'
'cocktails_'
'product_'
'salt_'
'beat_'
'truck_'
'nights_'
'negative_'
'pho_'
'shops_'
'chain_'
'quiet_'
'! \10;_'
'answer_'
'\\/ _'
'worse_'
'+ _'
'clear_'
'E_'
'elsewhere_'
'greasy_'
'reservations_'
'entree_'
'hate_'
'locations_'
'previous_'
'overpriced_'
'B_'
'entrees_'
'means_'
'juicy_'
'website_'
'stuffed_'
'shot_'
'glasses_'
'suggest_'
'traditional_'
'covered_'
'fill_'
'smell_'
'LOVE_'
'fit_'
'creamy_'
'Indian_'
'word_'
'throughout_'
'pancakes_'
'AND_'
'lettuce_'
'shows_'
'rating_'
'experienced_'
'rib_'
'Charlotte_'
'Plus_'
'pass_'
'broth_'
'conversation_'
'normal_'
'Ordered_'
'positive_'
'split_'
':  _'
'solid_'
'mediocre_'
'Next_'
'Finally_'
'bucks_'
'fancy_'
'watching_'
'OK_'
'limited_'
'!!  _'
'fabulous_'
'continue_'
'vehicle_'
'buying_'
'bunch_'
'reading_'
'lol_'
'convenient_'
'mostly_'
'save_'
'weird_'
'barely_'
'baby_'
'Nothing_'
'texture_'
'Let_'
'sad_'
'Got_'
'experiences_'
'break_'
'tonight_'
'sour_'
'cocktail_'
'smaller_'
'Japanese_'
'outdoor_'
'ne_'
'compared_'
'Like_'
'happen_'
'meet_'
'ie_'
'perfection_'
'straight_'
'M_'
'willing_'
'provide_'
'nicely_'
'rate_'
'z_'
'prefer_'
'ten_'
'Why_'
'chili_'
'station_'
'double_'
'Korean_'
'les_'
'casual_'
'spoke_'
'cars_'
'meats_'
'difficult_'
'cause_'
'spice_'
'!) _'
'booked_'
':\10;_'
'TV_'
'thanks_'
'juice_'
'notice_'
'normally_'
'cleaned_'
'mistake_'
'Monday_'
'known_'
'returned_'
'Burger_'
'Delicious_'
'explain_'
'telling_'
'thru_'
'SO_'
'strong_'
'se_'
'obviously_'
'ladies_'
'children_'
'missing_'
'machine_'
'trust_'
'skin_'
'dress_'
'story_'
'cafe_'
'By_'
'avoid_'
'rich_'
' \10;\10;_'
'lines_'
'cheaper_'
'paper_'
'N_'
'movie_'
'bun_'
'offers_'
'Friendly_'
'ts_'
'kid_'
'slice_'
'actual_'
'vegetables_'
'0_'
'discount_'
'veggie_'
'moment_'
'pricing_'
' ... _'
'relaxing_'
'AMAZING_'
'art_'
'...\10;\10;_'
'Arizona_'
'hidden_'
'brand_'
'similar_'
'rush_'
'Prices_'
'workers_'
'mushrooms_'
'send_'
'forever_'
'sister_'
'ride_'
'Try_'
'request_'
'informed_'
'Another_'
'additional_'
'interior_'
'email_'
'living_'
'reasonably_'
'gift_'
' ! _'
'schedule_'
'heart_'
'noodle_'
'mac_'
'body_'
'cashier_'
'nt_'
'spa_'
'Pittsburgh_'
'American_'
'un_'
'Other_'
'higher_'
'lemon_'
'duck_'
'folks_'
'placed_'
'ion_'
'important_'
'particular_'
'P_'
'dip_'
'pm_'
'sense_'
'anymore_'
'kinda_'
'spots_'
'dance_'
'NO_'
'cozy_'
'Seriously_'
'courteous_'
'os_'
'!!!! _'
'funny_'
'O_'
'sugar_'
'information_'
'....._'
'none_'
'que_'
'calling_'
'foods_'
'gives_'
'favorites_'
'Two_'
'L_'
'flat_'
'hang_'
'eyes_'
'co_'
'driving_'
'Montreal_'
'ring_'
'tour_'
'finding_'
'?_'
'treatment_'
'drop_'
'das_'
'board_'
'complain_'
'pizzas_'
'loves_'
'nearly_'
'become_'
'dont_'
'basic_'
'pepper_'
'standing_'
'slices_'
'Y_'
'photos_'
'spring_'
'step_'
'sized_'
'flight_'
'cakes_'
'detail_'
'general_'
'?\10;\10;_'
'Loved_'
'avocado_'
'girlfriend_'
'helping_'
'picture_'
'ridiculous_'
'opening_'
'topped_'
'range_'
'b_'
'market_'
'Lots_'
'yesterday_'
'welcome_'
'heavy_'
'mess_'
'ies_'
'receive_'
'ran_'
'difference_'
'nearby_'
'complaints_'
'parts_'
'feet_'
'anyway_'
' :)_'
'contact_'
'plain_'
'bigger_'
'Absolutely_'
'presentation_'
'answered_'
'Starbucks_'
'mini_'
'replaced_'
'stick_'
'prior_'
'California_'
'vegas_'
'broken_'
'ness_'
'despite_'
'key_'
'Sushi_'
'walls_'
'visits_'
'NEVER_'
'sold_'
'daily_'
'ry_'
'spinach_'
'f_'
'roasted_'
'owned_'
'tickets_'
' ( _'
'arrive_'
'Tuesday_'
'pre_'
'refund_'
'Have_'
'areas_'
'Of_'
'bars_'
'flavour_'
'pedicure_'
'14_'
'Get_'
'favourite_'
'coupon_'
'popular_'
'french_'
'tofu_'
'suggested_'
'exceptional_'
'lucky_'
'personally_'
'wide_'
'property_'
' #_'
'dine_'
'gravy_'
'par_'
'classes_'
'cover_'
'bottom_'
'bean_'
'cookies_'
'bother_'
'response_'
'calls_'
'desert_'
'boy_'
'Big_'
'classic_'
'orange_'
'furniture_'
'self_'
'tomatoes_'
'venue_'
'brisket_'
'16_'
'talked_'
'realized_'
'certain_'
'sale_'
'peppers_'
'road_'
'refreshing_'
'sick_'
'&_'
'Here_'
'feels_'
'appreciated_'
'cooking_'
'security_'
'shower_'
'various_'
'wrap_'
'brown_'
'decide_'
'belly_'
'Again_'
'imagine_'
'correct_'
'types_'
'men_'
'hadn_'
'results_'
'question_'
'follow_'
'Bar_'
'everywhere_'
'", _'
'tons_'
'screen_'
'ch_'
'Strip_'
'lounge_'
'post_'
'bartenders_'
'disappoint_'
'ted_'
'ich_'
'figured_'
'prompt_'
'pour_'
'House_'
'BEST_'
'women_'
'Happy_'
'Cleveland_'
'gluten_'
'ble_'
'fat_'
'older_'
'overly_'
'themselves_'
'valley_'
'age_'
'king_'
'dentist_'
'Today_'
'hole_'
'donuts_'
'soggy_'
'foot_'
'pop_'
'Mac_'
'combination_'
'im_'
'shoes_'
'kick_'
'wood_'
'round_'
'His_'
'60_'
'blue_'
'AZ_'
'smoked_'
'pot_'
'95_'
'Red_'
'sports_'
'coconut_'
'state_'
'wanting_'
'Please_'
'likely_'
'driver_'
'18_'
'nor_'
'member_'
'larger_'
'sound_'
'\10;- _'
'phenomenal_'
'closer_'
'apparently_'
'stuck_'
'gel_'
'dropped_'
'turkey_'
'com_'
'earlier_'
'facility_'
'Cheese_'
'disappointment_'
'requested_'
'recent_'
'iced_'
'third_'
'Last_'
'figure_'
'damn_'
'unfortunately_'
'mood_'
'VERY_'
'York_'
'stated_'
'bone_'
'smoke_'
'consider_'
'Been_'
'Beef_'
'absolute_'
'Check_'
'drove_'
'setting_'
'cuisine_'
'Ok_'
'nicht_'
'separate_'
'mushroom_'
'13_'
'!!!  _'
'crisp_'
'health_'
'carry_'
'safe_'
'Pretty_'
'raw_'
'Be_'
'promptly_'
'moist_'
'doors_'
'goodness_'
'des_'
'dealership_'
'guest_'
'miles_'
'calamari_'
'tap_'
'Groupon_'
'selections_'
'led_'
'drinking_'
'lights_'
'haircut_'
'sub_'
'hoping_'
'complimentary_'
'design_'
'clothes_'
'mother_'
'pleasantly_'
'dollar_'
'grocery_'
'soda_'
'tough_'
'sample_'
'stylist_'
'training_'
'recommendations_'
'advice_'
'fault_'
'waffles_'
'tech_'
'allowed_'
'weekends_'
'sashimi_'
':\10;\10;_'
'following_'
'DO_'
'Fresh_'
'rock_'
'parents_'
'Cafe_'
'support_'
'mango_'
'war_'
'spacious_'
'agreed_'
'wants_'
'closing_'
'crew_'
'). \10;\10;_'
'mit_'
'doubt_'
'nachos_'
'apartment_'
'Still_'
'enjoyable_'
'joke_'
'Pho_'
'prime_'
'impressive_'
'windows_'
'putting_'
'hotels_'
'à_'
'na_'
'oysters_'
'concept_'
'ment_'
'words_'
'upset_'
'personable_'
'realize_'
'country_'
'H_'
'scheduled_'
'major_'
'fully_'
'bites_'
'rental_'
'2nd_'
'interested_'
'Which_'
'honey_'
'waffle_'
'somewhat_'
'further_'
'den_'
'Thursday_'
'resort_'
'filet_'
'recommendation_'
'platter_'
'child_'
'grill_'
'rings_'
'passed_'
'properly_'
'crunchy_'
'zu_'
'Day_'
'host_'
'bike_'
'.) _'
'entrance_'
'legs_'
'Greek_'
'Salad_'
'menus_'
'booth_'
'rushed_'
'didnt_'
'missed_'
'R_'
'rent_'
'register_'
'chair_'
'35_'
'bakery_'
'guacamole_'
'cards_'
'strawberry_'
'weather_'
'Restaurant_'
'ty_'
'fall_'
'lower_'
'bright_'
'warranty_'
'cookie_'
'disgusting_'
'private_'
'otherwise_'
'Because_'
'deliver_'
'90_'
'site_'
'apple_'
'fell_'
'unprofessional_'
'chewy_'
'whether_'
'Anyway_'
'bringing_'
'opted_'
'Chicago_'
'alcohol_'
'test_'
'Took_'
'consistently_'
'hell_'
'K_'
'quote_'
'picky_'
'patrons_'
'consistent_'
'members_'
'sizes_'
'lobby_'
'TO_'
'banana_'
'garage_'
')\10;\10;_'
'gorgeous_'
'theater_'
'mashed_'
'wow_'
' ._'
'St_'
'regret_'
'ambience_'
'pressure_'
'Being_'
'deals_'
'City_'
'Each_'
'gas_'
'below_'
'bbq_'
'$_'
'crap_'
'odd_'
'smooth_'
'luck_'
'tire_'
'pub_'
'package_'
'ticket_'
'version_'
'stood_'
'ons_'
'zero_'
'replace_'
'thai_'
' + _'
'whenever_'
'Worst_'
'hummus_'
'machines_'
'gross_'
' \\/ _'
'fire_'
'auch_'
'changes_'
'pad_'
'ball_'
'refused_'
'agree_'
'Street_'
'clients_'
'handle_'
'Valley_'
'sehr_'
'ting_'
'app_'
'ish_'
'pet_'
'chill_'
'generally_'
'G_'
'ation_'
'writing_'
'vanilla_'
'é_'
'pastries_'
'thorough_'
'dim_'
'catch_'
'equipment_'
'towards_'
'pita_'
'YOU_'
'department_'
'diner_'
'unit_'
'lacking_'
'plastic_'
'spending_'
'Her_'
'burnt_'
'yeah_'
'"_'
'decision_'
'knowing_'
'dumplings_'
'ass_'
'wear_'
'ham_'
'receipt_'
'stock_'
'Who_'
'ground_'
'relaxed_'
'ns_'
'English_'
'beginning_'
'perhaps_'
'tax_'
'spectacular_'
'pleasure_'
'Place_'
'latte_'
'six_'
'points_'
'hash_'
'frequent_'
'IT_'
'craft_'
'groups_'
'wrapped_'
'Did_'
'suggestions_'
'!  \10;\10;_'
'serious_'
'Chef_'
'vacation_'
'admit_'
'heaven_'
'dozen_'
'Mike_'
'ge_'
'hip_'
'lighting_'
'knowledge_'
'HUGE_'
'THIS_'
'Yum_'
'apart_'
'sh_'
'sum_'
'gelato_'
'yum_'
'travel_'
'constantly_'
'wonder_'
'natural_'
'da_'
'Horrible_'
'Steak_'
'greens_'
'sucks_'
'bottles_'
'Make_'
'possibly_'
'yogurt_'
'creative_'
'Upon_'
'steaks_'
'17_'
'Madison_'
'enjoying_'
'Wednesday_'
'manner_'
'stomach_'
'stage_'
'account_'
'tires_'
'awhile_'
'Christmas_'
'John_'
'particularly_'
'Hot_'
'ein_'
'ALL_'
'".  _'
'75_'
'surprisingly_'
'Bellagio_'
'till_'
'Fried_'
'cheesecake_'
'bus_'
'learned_'
'uncomfortable_'
'Perfect_'
'carpet_'
'community_'
'meeting_'
'scallops_'
'Joe_'
'Come_'
'costs_'
'An_'
'Pork_'
'include_'
'Probably_'
'shouldn_'
'Too_'
'upstairs_'
'PM_'
'North_'
'pull_'
'maintenance_'
'80_'
'specialty_'
'tells_'
'laid_'
'refill_'
'Needless_'
'freshly_'
')_'
'pair_'
'peanut_'
'EVER_'
'offering_'
'F_'
'tips_'
'superb_'
'biggest_'
'seasoning_'
'organized_'
'managed_'
'update_'
'Customer_'
'against_'
'relax_'
'followed_'
'$ _'
'balls_'
'band_'
'treats_'
'polish_'
'San_'
'events_'
'bags_'
'allow_'
'learn_'
'delish_'
'giant_'
'comment_'
'budget_'
'NY_'
'via_'
'gonna_'
'ey_'
'W_'
'melted_'
'cares_'
'bomb_'
'annoying_'
'snack_'
'um_'
')._'
'serves_'
'favor_'
'waiters_'
'Shrimp_'
'!!!!_'
'occasion_'
'manicure_'
'cupcakes_'
'Hotel_'
'caring_'
'ous_'
'ourselves_'
'Or_'
'vet_'
'* _'
'refills_'
'ways_'
'listen_'
'mayo_'
'occasions_'
'ling_'
'companies_'
'1st_'
'pudding_'
'Price_'
'AYCE_'
'begin_'
'noise_'
'effort_'
'Is_'
'el_'
'teeth_'
'La_'
'typically_'
'Tried_'
'gentleman_'
'onto_'
'dipping_'
'specific_'
'keeping_'
'happens_'
'played_'
'ls_'
'kinds_'
'Honestly_'
'cuts_'
'fare_'
'planning_'
'comfort_'
'photo_'
'throw_'
'practice_'
'poutine_'
'starting_'
'Green_'
'-- _'
'overcooked_'
'bathrooms_'
'Such_'
'Old_'
'OMG_'
'tired_'
'waitresses_'
'hanging_'
'saved_'
'margarita_'
'Vietnamese_'
'discovered_'
'apologized_'
'bank_'
'Coffee_'
'?! _'
'Keep_'
'GREAT_'
'Clean_'
'dough_'
'presented_'
'oven_'
'People_'
'inviting_'
'decorated_'
'boba_'
'upscale_'
'crepe_'
'Me_'
'form_'
'worry_'
'Instead_'
'locals_'
'Parking_'
'terms_'
'accommodate_'
'advance_'
'dead_'
'match_'
'leaves_'
'Sorry_'
'court_'
'takeout_'
'hubby_'
'named_'
'shape_'
'became_'
'parties_'
'began_'
'appointments_'
'sliced_'
'extensive_'
'suite_'
'West_'
'repairs_'
'tion_'
'LA_'
'brother_'
'balance_'
'sea_'
'Park_'
'himself_'
'bowls_'
'Tempe_'
'broke_'
'access_'
'watched_'
'cups_'
'mile_'
'Didn_'
'tempura_'
'J_'
'Out_'
'Fast_'
'numerous_'
'distance_'
'Chris_'
'!!\10;\10;_'
'truffle_'
'soy_'
'X_'
')\10;_'
'caramel_'
'flavours_'
'paint_'
'comfy_'
'energy_'
'reasons_'
'policy_'
'control_'
'Your_'
'Fantastic_'
'trouble_'
'proceeded_'
'savory_'
'Stopped_'
'syrup_'
'Sometimes_'
'thoroughly_'
'BUT_'
'floors_'
'reminded_'
'compare_'
'complex_'
'meatballs_'
'excuse_'
'ignored_'
'timely_'
'tortilla_'
'books_'
'ya_'
'message_'
'removed_'
'dad_'
'ter_'
'hey_'
'goods_'
'ma_'
'South_'
'Second_'
'sounds_'
'shake_'
'season_'
'charges_'
'*_'
'Having_'
'goat_'
'ur_'
'promised_'
'west_'
'details_'
'beds_'
'shame_'
'ia_'
'drunk_'
'bagel_'
'aware_'
'organic_'
'studio_'
'wise_'
'fees_'
'. $_'
'opportunity_'
'Caesar_'
'regularly_'
'ive_'
'200_'
'tend_'
'scene_'
'\10;-_'
'final_'
'Mr_'
'?" _'
'originally_'
'computer_'
'buffets_'
'cant_'
'pineapple_'
'installed_'
'!   _'
'payment_'
'smelled_'
'history_'
'th_'
'search_'
'everyday_'
'handed_'
'ent_'
'produce_'
'random_'
'."  _'
'specifically_'
'shit_'
'roast_'
'advantage_'
' !_'
'oz_'
'impression_'
'Die_'
'asada_'
'signed_'
'base_'
'quoted_'
'act_'
'Taco_'
'sun_'
'soups_'
'ss_'
'deli_'
'snacks_'
'strange_'
'meant_'
'unlike_'
'nasty_'
'candy_'
'IS_'
'threw_'
'exact_'
'Sweet_'
'King_'
'contacted_'
'Terrible_'
'relatively_'
'east_'
'happier_'
'basil_'
'ar_'
'fluffy_'
'continued_'
'beautifully_'
'cat_'
'concerned_'
'dried_'
'Over_'
'Drinks_'
'college_'
'DJ_'
'shocked_'
'sleep_'
'includes_'
'posted_'
'showing_'
'intimate_'
'example_'
'boxes_'
'chefs_'
'WOW_'
'chip_'
'views_'
'steamed_'
'slaw_'
'mustard_'
'Im_'
'US_'
'buns_'
'bonus_'
'margaritas_'
'address_'
'workout_'
'respect_'
'dressed_'
'smoking_'
'picking_'
'describe_'
'?) _'
'carne_'
'worker_'
'enter_'
'AC_'
'ck_'
'keeps_'
'client_'
'shots_'
'tasteless_'
'Fries_'
'spices_'
'Manager_'
'names_'
'delightful_'
'fry_'
'dancing_'
'donut_'
'ings_'
'ic_'
'knowledgable_'
'AM_'
'cinnamon_'
'sprouts_'
'corporate_'
'...  _'
'U_'
'lime_'
'directly_'
'likes_'
'surgery_'
'3rd_'
'traffic_'
'classy_'
'au_'
'blown_'
'colors_'
'valet_'
'.    _'
'vegetable_'
'tv_'
'confused_'
'du_'
'Okay_'
'During_'
'winter_'
'technician_'
'patients_'
'informative_'
'listed_'
'Das_'
'ds_'
'dental_'
'alright_'
':\\/\\/_'
'ginger_'
'loaded_'
'Wynn_'
'estimate_'
'display_'
'fridge_'
'changing_'
'careful_'
'pepperoni_'
'upgrade_'
'miso_'
'Rock_'
'hardly_'
'ranch_'
'selling_'
'burritos_'
'skills_'
'result_'
'law_'
'pedi_'
'leftovers_'
'land_'
'row_'
'signature_'
'starts_'
'referred_'
'East_'
'flowers_'
'wines_'
'Where_'
'tub_'
'nicer_'
'terrific_'
'Apparently_'
'booths_'
'hype_'
'membership_'
'crepes_'
'concerns_'
'tortillas_'
'trendy_'
'espresso_'
'Especially_'
'businesses_'
'skip_'
'gyro_'
'mid_'
'sharing_'
'famous_'
'cheesy_'
'une_'
'mozzarella_'
'eggplant_'
'blood_'
'mild_'
'nervous_'
'Le_'
'inexpensive_'
'stone_'
'hat_'
'Tea_'
'broccoli_'
'mail_'
'trash_'
'VIP_'
'sticky_'
'chunks_'
'frequently_'
'ys_'
'ally_'
'pink_'
'romantic_'
'flavored_'
'Before_'
'Chocolate_'
'rarely_'
'?? _'
'memorable_'
'More_'
'video_'
'obvious_'
'toasted_'
'samples_'
'hospital_'
'proper_'
'Market_'
'text_'
'suppose_'
'shell_'
'held_'
'neat_'
'fans_'
'signs_'
'Luckily_'
'popcorn_'
'damage_'
'downside_'
'Spicy_'
'als_'
'IN_'
'Black_'
'Wish_'
'Long_'
'für_'
'pointed_'
'anniversary_'
'written_'
'easier_'
'topping_'
' -_'
'current_'
'cucumber_'
'students_'
'common_'
'Called_'
'pickles_'
'il_'
'gotta_'
'seconds_'
'equally_'
'cancel_'
'lie_'
'groupon_'
'21_'
'Pad_'
'remembered_'
'sliders_'
'mussels_'
'tattoo_'
'GO_'
'auf_'
'appeared_'
'annoyed_'
'repeat_'
'arrival_'
'000_'
', & _'
'standards_'
'lit_'
'pan_'
'ins_'
'caught_'
'," _'
'chat_'
'ceiling_'
'melt_'
'ra_'
'tad_'
'Small_'
'biscuits_'
'downstairs_'
'explaining_'
'win_'
'medical_'
'pack_'
'layout_'
'nobody_'
'fingers_'
'patty_'
'Fish_'
'animals_'
'anytime_'
'welcomed_'
'aber_'
'massive_'
'Club_'
'offerings_'
'smoothie_'
'pas_'
'boys_'
'initial_'
'Michael_'
'doctors_'
'correctly_'
'wifi_'
'spread_'
'wet_'
'towels_'
'necessary_'
'replacement_'
'Center_'
'wearing_'
'.  (_'
'ease_'
'deserve_'
'B'
'blast_'
'somehow_'
'ks_'
'boring_'
'Breakfast_'
'understanding_'
'pastry_'
'lazy_'
'accept_'
'temperature_'
'smells_'
'industry_'
'condition_'
'shuttle_'
'olive_'
'www_'
'block_'
'custom_'
'hurt_'
', $_'
'completed_'
'Usually_'
'receptionist_'
'ity_'
'rocks_'
'deserves_'
'Bay_'
'theme_'
'partner_'
'sake_'
'Hands_'
'south_'
'complained_'
'program_'
'70_'
'headed_'
'bagels_'
'eventually_'
'sounded_'
'secret_'
'build_'
'http_'
'Rice_'
'handled_'
'hearing_'
'contract_'
' .. _'
'yoga_'
'Henderson_'
'tapas_'
'Free_'
'runs_'
'poorly_'
'shirt_'
'clubs_'
'satisfying_'
'Grill_'
'wax_'
'internet_'
'lose_'
'ruined_'
'courses_'
'create_'
'clothing_'
'stale_'
'Yeah_'
'facial_'
'charging_'
'adults_'
'depending_'
'pancake_'
'paperwork_'
'dealing_'
'personality_'
'Grand_'
' :) _'
'Mary_'
'ends_'
'Bad_'
'Many_'
'awkward_'
'entertainment_'
'aside_'
'batter_'
'Wonderful_'
'hung_'
'yellow_'
'tight_'
'basket_'
'cutting_'
'penny_'
'failed_'
'install_'
' *_'
'Beautiful_'
'K'
'Blue_'
'ta_'
'info_'
'creme_'
'apology_'
'5'
'def_'
'wir_'
'previously_'
'regulars_'
'ine_'
'David_'
'uses_'
'communication_'
'fountain_'
'claim_'
'switch_'
'dive_'
'thats_'
'Take_'
'cupcake_'
'among_'
'crunch_'
'holiday_'
'ful_'
'families_'
'turns_'
'cab_'
'adding_'
'liking_'
'ED_'
'lives_'
'Sure_'
'rolled_'
'individual_'
'remove_'
'Tom_'
'yard_'
'!!!\10;\10;_'
'weekly_'
'attempt_'
'blow_'
'stupid_'
'assured_'
'power_'
'bet_'
'Lobster_'
'weight_'
'Looking_'
'tooth_'
'id_'
'speaking_'
'nuts_'
'female_'
'adult_'
'2'
'consistency_'
'dem_'
'Room_'
'helps_'
'hint_'
'Little_'
'ke_'
'greet_'
'toilet_'
'LV_'
'crappy_'
'Town_'
')  _'
'bedroom_'
'gut_'
'sticks_'
'stopping_'
'meh_'
'GOOD_'
'hurry_'
' " _'
'rated_'
'shredded_'
'ensure_'
'worried_'
'coupons_'
'importantly_'
'research_'
'apps_'
'fake_'
'Despite_'
'prepare_'
'closest_'
'bf_'
'ca_'
'30pm_'
' = _'
'Though_'
'professionalism_'
'impossible_'
'complaining_'
'potential_'
'22_'
'God_'
'familiar_'
'cheddar_'
'spaghetti_'
'messed_'
'teriyaki_'
'lacked_'
'genuinely_'
'ketchup_'
'besides_'
'eyebrows_'
'Benedict_'
'tag_'
'auto_'
'\u_'
'AWESOME_'
'Atmosphere_'
'., _'
'count_'
'eats_'
'listened_'
'ors_'
'naan_'
'feed_'
'About_'
'highlight_'
'ves_'
'cilantro_'
'ON_'
'cabbage_'
'breast_'
'   _'
'brings_'
'grand_'
'Worth_'
'omelette_'
'Salmon_'
'gourmet_'
'x'
'ding_'
'apologize_'
'? \10;\10;_'
'sesame_'
'celebrate_'
'dined_'
'entertaining_'
'haha_'
'grabbed_'
'Roll_'
'student_'
'field_'
'buffalo_'
'hooked_'
'leg_'
'ant_'
'Chipotle_'
'TVs_'
'artist_'
'!). _'
'afterwards_'
'pesto_'
'interest_'
'impeccable_'
'chopped_'
'talented_'
'afraid_'
'neither_'
'hi_'
'built_'
'required_'
'mani_'
'#_'
'eine_'
'Fun_'
'Man_'
'push_'
'Home_'
'sweetness_'
'Beer_'
'MGM_'
'ky_'
'Top_'
'minor_'
'Perhaps_'
'olives_'
'19_'
'wrote_'
'initially_'
'bits_'
'neck_'
'tart_'
'hasn_'
'wing_'
'train_'
'ay_'
'Hawaiian_'
'beverage_'
'REALLY_'
'hire_'
'ingly_'
'tomorrow_'
'asparagus_'
'dream_'
'assume_'
'session_'
'Give_'
'minimum_'
'hassle_'
'ING_'
'letting_'
'ung_'
'reserved_'
'planned_'
'joints_'
'chorizo_'
'.   \10;\10;_'
'heading_'
'teas_'
'north_'
'ha_'
'voice_'
'Otherwise_'
'omelet_'
'stocked_'
'oily_'
'Made_'
'lo_'
', (_'
'fly_'
'Right_'
'Anyways_'
'entered_'
'present_'
'elevator_'
'coleslaw_'
'Hour_'
'ravioli_'
'lets_'
'Buffet_'
'overwhelming_'
'garden_'
'X'
'wasted_'
'Huge_'
'mechanic_'
'kidding_'
'buttery_'
'almond_'
'Edinburgh_'
'fellow_'
'regarding_'
'managers_'
'blend_'
'lover_'
'...\10;_'
'noon_'
'0'
'concern_'
'battery_'
'jam_'
'suggestion_'
'fatty_'
'Chandler_'
'ONE_'
'scoop_'
'MY_'
'shirts_'
'container_'
'indoor_'
'Located_'
'currently_'
'keys_'
'reminds_'
'cart_'
'golf_'
'encountered_'
'See_'
'NYC_'
'roof_'
'ps_'
'reviewers_'
'lemonade_'
'!" _'
'ai_'
'4'
'weekday_'
'Venetian_'
'Crab_'
'god_'
'select_'
'ian_'
'July_'
'Soup_'
'beverages_'
'suit_'
'Save_'
'sind_'
'enchiladas_'
'public_'
'track_'
'salted_'
'responded_'
'V_'
'vodka_'
'mint_'
'Kitchen_'
'Totally_'
'protein_'
'report_'
'ONLY_'
'hopefully_'
'earth_'
'juices_'
'diet_'
'croissant_'
'trips_'
'sets_'
'mexican_'
'ee_'
'!), _'
'genuine_'
'appt_'
'introduced_'
'poke_'
'! (_'
'bothered_'
'draft_'
'ions_'
'thrilled_'
'pride_'
'Mesa_'
'Stay_'
'Are_'
'sooo_'
'j_'
'soooo_'
'M'
'museum_'
'mi_'
'mark_'
'levels_'
'sich_'
'convenience_'
'emergency_'
'period_'
'movies_'
'THAT_'
'focus_'
'stress_'
' ,_'
'updated_'
'White_'
'background_'
'10'
'procedure_'
'ze_'
'plaza_'
'searching_'
'risotto_'
'garbage_'
'booking_'
'300_'
'Found_'
'R'
'warned_'
'Casino_'
'Apple_'
'Sandwich_'
'rip_'
'alternative_'
'couch_'
'dealer_'
'em_'
'chipotle_'
'500_'
'..... _'
'stairs_'
'Tacos_'
'May_'
'grease_'
'purchasing_'
'6'
'flavourful_'
'Texas_'
'ridiculously_'
'Better_'
'jewelry_'
'dresses_'
'amazed_'
'preferred_'
'exception_'
'provides_'
'Cool_'
'wraps_'
'ft_'
'amazingly_'
'magic_'
'pies_'
'wont_'
'starving_'
'jerk_'
'gras_'
'mainly_'
'pound_'
'Ask_'
'requests_'
'chop_'
'male_'
'grateful_'
'.\10;\10;\10; _'
'Note_'
'Queen_'
'social_'
'comments_'
'salons_'
'Steve_'
'ley_'
'quantity_'
'Essen_'
'champagne_'
'print_'
'quaint_'
'gs_'
'stellar_'
'faster_'
'exam_'
'speed_'
'2016_'
'vs_'
'reception_'
'chinese_'
'restroom_'
'cooks_'
'Q_'
'whipped_'
'quesadilla_'
'rough_'
'ups_'
'lease_'
'page_'
'liquor_'
'created_'
'dy_'
'ying_'
'father_'
'improve_'
'action_'
'Three_'
'bell_'
'anyways_'
'shut_'
'tone_'
'Ramen_'
'mad_'
'hello_'
'reliable_'
'makeup_'
'Won_'
'cared_'
'Five_'
'lashes_'
'buds_'
'accident_'
'octopus_'
'basis_'
'vinegar_'
'lich_'
'involved_'
'napkins_'
'Yummy_'
'herself_'
'3'
'custard_'
'stumbled_'
'entering_'
'forced_'
'2015_'
'cheeses_'
'ages_'
'amenities_'
'dealt_'
'HERE_'
'reach_'
'designed_'
'" (_'
'grits_'
'alot_'
'ours_'
'seasonal_'
'Star_'
'asks_'
'smoothies_'
'hop_'
'happening_'
'FOR_'
'.\10;- _'
'fitness_'
'afford_'
'noisy_'
'cherry_'
'Bacon_'
'steakhouse_'
'LOL_'
'Sat_'
'square_'
'advised_'
'OF_'
'tes_'
'happily_'
'Ice_'
'monthly_'
'sing_'
') - _'
'brew_'
'balanced_'
'martini_'
'von_'
'pickled_'
'animal_'
'z'
'ess_'
'V'
'repaired_'
'Way_'
'Enjoy_'
'deposit_'
'veal_'
'grew_'
'-$_'
'v_'
'pants_'
'football_'
'Must_'
'=_'
'gold_'
'described_'
'ER_'
'wanna_'
'ill_'
'carrots_'
'Mediterranean_'
'maple_'
'undercooked_'
'skeptical_'
'browns_'
'pushy_'
'paired_'
'considered_'
'Four_'
'promise_'
'nicest_'
'washed_'
'replied_'
'concert_'
'trained_'
'150_'
'attended_'
'Paris_'
'root_'
'gate_'
'. "_'
'barber_'
'inspection_'
'sadly_'
'J'
'greatest_'
'sucked_'
'pumpkin_'
'clinic_'
'tucked_'
'hopes_'
'marinated_'
'......_'
'tower_'
'loyal_'
'indeed_'
'rave_'
'ship_'
'8'
'strawberries_'
'Bell_'
' ..._'
'cleanliness_'
'Order_'
'shortly_'
'Curry_'
'locally_'
'falafel_'
'Square_'
'F'
'rep_'
'Sadly_'
'ping_'
'practically_'
'puts_'
'Aria_'
'hesitate_'
'dude_'
'stands_'
'highlights_'
'slight_'
'plentiful_'
'bubble_'
'salesman_'
'foie_'
'calm_'
'S'
'Dinner_'
'lovers_'
'??? _'
'confirm_'
'scratch_'
'massages_'
'fav_'
'edible_'
'cents_'
'thumbs_'
'fork_'
'charming_'
'pretzel_'
'messy_'
'providing_'
'noch_'
'rates_'
'heads_'
'ME_'
'nd_'
'compliments_'
'Plenty_'
'unlimited_'
'advertised_'
'blah_'
'younger_'
'Dave_'
'comparison_'
'cell_'
'Wait_'
'wild_'
'cleaner_'
'tree_'
'sink_'
'traveling_'
'w'
'diners_'
'legit_'
'wallet_'
'unable_'
'appetite_'
'ID_'
'Mark_'
'snow_'
'H'
'exciting_'
'Quick_'
'ier_'
'freaking_'
'El_'
'midnight_'
'code_'
'Lunch_'
'buck_'
'dinners_'
'arriving_'
'SERVICE_'
'appropriate_'
'Easy_'
'plans_'
'fashion_'
'maintained_'
'handful_'
'MUST_'
'strips_'
'trade_'
'news_'
'smiling_'
'pools_'
'flavorless_'
'insisted_'
'forth_'
'checks_'
'con_'
'fiancé_'
'ribeye_'
'Egg_'
'raspberry_'
'asian_'
'judge_'
'assistant_'
'adds_'
'saving_'
'comparable_'
'hearty_'
'AT_'
'wondering_'
'premium_'
'Those_'
'je_'
'starter_'
'Matt_'
'bath_'
'smart_'
'chatting_'
'states_'
'adorable_'
'fruits_'
'delight_'
'Waited_'
'Sauce_'
'recall_'
'fusion_'
'refilled_'
'bc_'
'dates_'
'detailed_'
'inch_'
'worthy_'
'understood_'
'einen_'
'mon_'
'kill_'
'Canada_'
'mushy_'
'mal_'
'honor_'
'YUM_'
'ging_'
'blonde_'
'rack_'
'tan_'
'assortment_'
'agent_'
'tank_'
'passing_'
'heck_'
'construction_'
'arm_'
'hits_'
'stepped_'
'songs_'
'settled_'
'Bread_'
'Location_'
'Family_'
'4th_'
'Total_'
'Portions_'
'confirmed_'
'ability_'
'finger_'
'meaning_'
'Tuna_'
'appears_'
'Menu_'
'passion_'
'velvet_'
'Extremely_'
'meatball_'
'tops_'
'Jason_'
'Garden_'
'tail_'
'confusing_'
'fed_'
'shaved_'
'ka_'
'guac_'
'regardless_'
'breads_'
'Spanish_'
'clue_'
'1'
'Spring_'
'grass_'
'Any_'
'shakes_'
'angry_'
'FOOD_'
'Sam_'
'upgraded_'
'LY_'
'blueberry_'
'collection_'
'lightly_'
'!!!!! _'
'guide_'
'Side_'
'McDonald_'
'improved_'
'America_'
'satisfy_'
'Quality_'
'2014_'
'holding_'
'approached_'
'phones_'
'Grilled_'
'Hopefully_'
'darn_'
'sight_'
'finishing_'
'9'
'earned_'
'theatre_'
'bass_'
'peak_'
'winner_'
'grown_'
'attached_'
'record_'
'?\10;_'
'cheeseburger_'
'Avoid_'
'raised_'
'microwave_'
'nurse_'
'filthy_'
'ample_'
'sangria_'
'scared_'
'wasnt_'
'vehicles_'
'bitter_'
'nowhere_'
'eater_'
'Look_'
'T'
'majority_'
'direction_'
'fight_'
'hipster_'
'ure_'
'Large_'
'everybody_'
'zed_'
'ripped_'
'Dessert_'
'Gilbert_'
'.)\10;\10;_'
'nce_'
'yelling_'
'degrees_'
'express_'
'ALWAYS_'
'twist_'
'mattress_'
'pets_'
'acceptable_'
'cheapest_'
'Either_'
'chile_'
'WAY_'
'd'
's'
'model_'
'fave_'
'Express_'
'tall_'
'falling_'
'Q'
'manage_'
'cramped_'
'shoulder_'
'exceeded_'
'Update_'
'features_'
'Tony_'
'faces_'
'trees_'
'jobs_'
'approach_'
'ms_'
'Garlic_'
'walks_'
'Irish_'
'thrown_'
'recommending_'
'Ive_'
'instructor_'
'screens_'
'ny_'
'million_'
'confident_'
'Italy_'
'fiance_'
'muffin_'
'desired_'
'challenge_'
'b'
'frustrating_'
'Cirque_'
'Spa_'
'shoe_'
'Lol_'
'coat_'
'W'
'LOVED_'
'flag_'
'( _'
'wished_'
'coworkers_'
'stations_'
'tray_'
'competitive_'
'screw_'
'Pros_'
'Almost_'
'blame_'
'brownie_'
'seared_'
'tile_'
'cuz_'
'Cream_'
'gentle_'
'load_'
'Besides_'
'opposite_'
'High_'
'Eggs_'
'Much_'
'aged_'
'kann_'
'hamburger_'
'spray_'
'instructors_'
'casinos_'
'tots_'
'facilities_'
'lly_'
'divine_'
'Wine_'
'choosing_'
'receiving_'
'weak_'
'growing_'
'I'
'rd_'
'qui_'
'project_'
'prescription_'
'hired_'
'waitstaff_'
'Mandalay_'
'kimchi_'
'swear_'
'steal_'
'frame_'
'gnocchi_'
'wheat_'
'ear_'
'answers_'
'bruschetta_'
'pure_'
'Palace_'
'cancelled_'
'Los_'
'vintage_'
'former_'
'Island_'
'Glad_'
'beware_'
'lake_'
'strongly_'
'waren_'
'steps_'
'tic_'
'Lastly_'
'associate_'
'lock_'
'Philly_'
'tho_'
'ki_'
'unhappy_'
'+_'
'frustrated_'
'minimal_'
'Downtown_'
'pics_'
'bloody_'
'warning_'
'D'
'steam_'
'safety_'
'acted_'
'treatments_'
'chains_'
'Kim_'
'staple_'
'leather_'
'couples_'
'6pm_'
'length_'
'installation_'
'entirely_'
'debit_'
'unacceptable_'
'mein_'
'laughing_'
'killer_'
'whatsoever_'
'pickup_'
'Special_'
'Bottom_'
'laugh_'
'P'
'puppy_'
'crowds_'
'styles_'
'Hard_'
'exchange_'
'carrot_'
'exterior_'
'tourist_'
'mignon_'
'according_'
'shawarma_'
'loose_'
'sampler_'
'forgotten_'
'N'
'caused_'
'Server_'
'fired_'
'gal_'
'China_'
'suck_'
'Cons_'
'loving_'
'buddy_'
'Mom_'
'pissed_'
'blew_'
'church_'
'G'
'sooner_'
'watery_'
'leak_'
'h'
'neighbourhood_'
'beauty_'
'Walmart_'
'edge_'
'listening_'
'neighbors_'
'très_'
'Dog_'
'needing_'
'parmesan_'
'artists_'
'burn_'
'blocks_'
'layer_'
'U'
'burned_'
'Wings_'
'parked_'
'7'
'therapist_'
'damaged_'
'Costco_'
'watering_'
'PLACE_'
'cal_'
'!! \10;\10;_'
'28_'
'attend_'
'dirt_'
'PS_'
'setup_'
'song_'
'f'
'instantly_'
'che_'
'semi_'
'competition_'
'squash_'
'ded_'
'm'
'2017_'
'respond_'
'language_'
'thus_'
'human_'
'gun_'
'Decent_'
'everytime_'
'explanation_'
'kale_'
'description_'
'.\10;\10;\10;_'
'flying_'
'pace_'
'!!\10;_'
'compliment_'
'risk_'
'overwhelmed_'
'stating_'
'lasagna_'
'emails_'
'patience_'
'fail_'
'ville_'
'supplies_'
'feta_'
'waxing_'
'ped_'
'starters_'
'wheel_'
'performance_'
'towel_'
'nur_'
'spoon_'
'heavenly_'
'Auto_'
'corned_'
'cross_'
'audience_'
' @ _'
'expert_'
'rented_'
'greeting_'
'n'
'WAS_'
'WILL_'
'."\10;\10;_'
'L'
'pocket_'
'painted_'
'c'
'Scott_'
'nightmare_'
'hier_'
'ol_'
'Jack_'
'elegant_'
'goodies_'
'hesitant_'
'waters_'
'bang_'
'steep_'
'firm_'
'Walked_'
'theirs_'
'5pm_'
'Same_'
'German_'
'improvement_'
'metal_'
'knock_'
'destination_'
'Eat_'
'C'
'gambling_'
'Parmesan_'
'hall_'
'charm_'
'Salon_'
'vous_'
'file_'
'smiles_'
'pushed_'
'23_'
' !! _'
'. :)_'
'clams_'
'master_'
'DELICIOUS_'
': "_'
'thankful_'
'YOUR_'
'Recently_'
'avec_'
'p'
'7pm_'
'memories_'
'Time_'
'coast_'
'guarantee_'
'ro_'
'Jeff_'
'unbelievable_'
'downhill_'
'acknowledged_'
'nut_'
'cooler_'
'nigiri_'
'allows_'
'Brian_'
'Crispy_'
'Could_'
'Boy_'
'locked_'
'April_'
'zucchini_'
'tongue_'
'mais_'
'Shop_'
'accurate_'
'WORST_'
'ning_'
'assistance_'
'Buffalo_'
'ain_'
'frosting_'
'numbers_'
'freshness_'
'Basically_'
'cone_'
'bottled_'
'Actually_'
'combinations_'
'queso_'
'Poor_'
'CA_'
'boss_'
'toys_'
'cy_'
'Back_'
'June_'
'Road_'
'Stars_'
'hospitality_'
'Chips_'
'Chili_'
'related_'
'berry_'
'Yelpers_'
'braised_'
'appealing_'
'crave_'
'assumed_'
'ni_'
'rid_'
'entry_'
'breaded_'
'popped_'
'Paul_'
'volume_'
'Tip_'
'ad_'
'ratio_'
'Obviously_'
'ked_'
'factor_'
'southern_'
'brands_'
'emailed_'
'jump_'
'hill_'
'checkout_'
'degree_'
'biscuit_'
'refer_'
'55_'
'conveniently_'
'ale_'
'las_'
'Orange_'
'Cajun_'
'rules_'
'heated_'
'accessories_'
'acknowledge_'
'Meat_'
'Canadian_'
'shoot_'
'Y'
'James_'
'pricy_'
'crack_'
'bills_'
'tions_'
'cousin_'
'2013_'
'holes_'
'sampled_'
'ideas_'
'stays_'
'Alex_'
'answering_'
'success_'
'ideal_'
'hike_'
'daughters_'
'Lee_'
'advise_'
'accompanied_'
'poured_'
'drivers_'
'HORRIBLE_'
'26_'
'..  _'
'ely_'
'Seems_'
'pretentious_'
'grow_'
'gladly_'
'calories_'
'ner_'
'Something_'
'skewers_'
'punch_'
'Seafood_'
'varieties_'
'aus_'
'Desert_'
'balsamic_'
'bs_'
'bugs_'
'benefit_'
'OR_'
'inconvenience_'
'lead_'
'Ever_'
'foodie_'
'ue_'
'sy_'
'Open_'
'tenders_'
'tangy_'
'minus_'
'anybody_'
'surrounding_'
'soul_'
'Kevin_'
'consisted_'
'sometime_'
'couches_'
'Holy_'
'Fremont_'
'.\10;\10; _'
'houses_'
'Ich_'
'trail_'
'plants_'
'selected_'
'Simply_'
'reached_'
'golden_'
'stops_'
'stew_'
'ance_'
'Someone_'
'feature_'
'ceviche_'
'appear_'
't'
'shift_'
'breath_'
'Mall_'
'inedible_'
'ger_'
'carte_'
'watered_'
'THEY_'
'retail_'
'noted_'
'chic_'
'unusual_'
'Hollywood_'
'! '
'italian_'
'Tonight_'
'wie_'
'rudely_'
'screaming_'
'flour_'
'SI'
'trim_'
'dryer_'
'bowling_'
'conference_'
'....\10;\10;_'
'Store_'
'Hubby_'
'oyster_'
'Sun_'
'recipe_'
':\10;- _'
'responsive_'
'apologetic_'
'tu'
'peach_'
'... \10;\10;_'
'gen_'
'remind_'
'license_'
'married_'
'diverse_'
'establishments_'
'cats_'
'Southern_'
'boiled_'
'laughed_'
'enchilada_'
'mistakes_'
'HAVE_'
'spiced_'
'iness_'
'sweets_'
'Cho'
'ux_'
'ary_'
'Village_'
'None_'
'ches_'
'chops_'
'fajitas_'
'politely_'
'tab_'
'Dan_'
'brewery_'
'Bloody_'
'stories_'
'carpets_'
'g'
'coke_'
'Stop_'
'August_'
'v'
'med_'
'squid_'
'icing_'
'branch_'
'Golden_'
'ned_'
'AGAIN_'
'plane_'
'throwing_'
'culinary_'
'Owner_'
'marinara_'
'Mc'
'sorts_'
'fixing_'
'clientele_'
'yo_'
'brick_'
'learning_'
'jack_'
'hrs_'
'pig_'
'switched_'
'Hawaii_'
'Lamb_'
'declined_'
'Sundays_'
'jalapeño_'
' '
'Rib_'
'whom_'
'sons_'
'LA'
'engine_'
'funky_'
'George_'
'seaweed_'
'March_'
'le'
'scrambled_'
'inspired_'
'dans_'
'jalapeno_'
'scam_'
'FYI_'
'tiramisu_'
'staffed_'
'chow_'
'moves_'
'Guess_'
'reviewed_'
'gifts_'
'lied_'
'Ko'
'27_'
'elevators_'
'Burgers_'
'sending_'
'Ohio_'
'scale_'
'bisque_'
'dropping_'
'badly_'
'ver_'
'vendors_'
'upper_'
'ut_'
'FREE_'
'painful_'
'mimosas_'
'storage_'
'attending_'
'dairy_'
'brows_'
'ff_'
'piping_'
'flaky_'
'claimed_'
'Tim_'
'Lo'
'join_'
'Bring_'
'cod_'
'tourists_'
'peas_'
'unfortunate_'
'q'
'400_'
'Whenever_'
'MA'
'boot_'
'spare_'
'pressed_'
'eager_'
'cornbread_'
'tries_'
'uns_'
'pile_'
'blowing_'
'hoped_'
'ja_'
'knife_'
'cauliflower_'
'ratings_'
'slowly_'
'insane_'
'supervisor_'
'iPhone_'
'Normally_'
'preference_'
'ght_'
'cracked_'
'sont_'
'swimming_'
'Couldn_'
'shady_'
'prosciutto_'
'aioli_'
': \10;_'
'nose_'
'superior_'
'surprising_'
'10pm_'
'Chinatown_'
'pit_'
'stir_'
'tequila_'
'29_'
'refuse_'
'scheduling_'
'barbecue_'
'hood_'
'condiments_'
'escape_'
'benedict_'
'wonderfully_'
'Pie_'
'dass_'
'canned_'
'grounds_'
',\10;_'
'assist_'
'veg_'
'array_'
'Bill_'
'Inside_'
'powder_'
'path_'
'Pasta_'
'convinced_'
'boutique_'
'coworker_'
'central_'
'artichoke_'
'DI'
'dig_'
'Hey_'
'feedback_'
'Ave_'
'spoiled_'
'brews_'
'satisfaction_'
'Mexico_'
'luxury_'
'poached_'
'ters_'
'score_'
'attempted_'
'Management_'
'bon_'
'A'
'pickle_'
'courtesy_'
'singing_'
'WTF_'
'essentially_'
'turning_'
'cent_'
'latest_'
'character_'
'combined_'
'cleared_'
'LOT_'
'ler_'
'tossed_'
'Waitress_'
'sa_'
'bikes_'
'acts_'
'Ryan_'
'Nevada_'
'Half_'
'grade_'
'focused_'
'screwed_'
'wasabi_'
'status_'
'routine_'
'arugula_'
'Trust_'
'solution_'
'drank_'
'8pm_'
'pump_'
'Air_'
'raved_'
'biz_'
'fool_'
'Nope_'
'Hope_'
'luckily_'
'memory_'
'lively_'
'Aside_'
'toward_'
'toes_'
'worn_'
'Thankfully_'
'Duck_'
'Diego_'
'assuming_'
'heater_'
'knots_'
').\10;_'
'notes_'
'chowder_'
'study_'
'smoky_'
'labor_'
'shade_'
'World_'
'Summerlin_'
'comp_'
'connected_'
'Honda_'
'!!!\10;_'
'shown_'
'pharmacy_'
'General_'
'Planet_'
'Lisa_'
'impress_'
'fear_'
'Cute_'
'duty_'
'tly_'
'van_'
'sells_'
'newer_'
'clerk_'
'silverware_'
'Tower_'
'pint_'
'Wir_'
'Der_'
'wooden_'
'stains_'
'Literally_'
'iron_'
'immer_'
'milkshake_'
'bands_'
'deciding_'
'unpleasant_'
'mountain_'
'rear_'
'pro_'
'ated_'
'! :)_'
' :_'
'opens_'
'Eric_'
'UN'
'Z'
'aka_'
' .  _'
'reviewer_'
'chen_'
'pastrami_'
'wonton_'
'Z_'
'subs_'
'macaroni_'
'comped_'
'lying_'
'ard_'
'zum_'
'Subway_'
'udon_'
'ses_'
'jeans_'
'Ka'
'& _'
'ces_'
'appearance_'
'unfriendly_'
'Whatever_'
'alcoholic_'
'decorations_'
'windshield_'
'slot_'
'catering_'
'hr_'
'explore_'
'conversations_'
'error_'
'transaction_'
'til_'
'police_'
'dust_'
'..\10;\10;_'
'Guys_'
'Cake_'
'Ambiance_'
'scallop_'
'Decor_'
'painting_'
'ah_'
'techs_'
'tipped_'
'seven_'
'layers_'
'muffins_'
'discounts_'
'Prime_'
'ownership_'
'k'
'sexy_'
'dated_'
'camera_'
'aspect_'
'prix_'
'performed_'
'flatbread_'
'letter_'
'surely_'
'curds_'
'extended_'
'definite_'
'ja'
'laptop_'
'stylists_'
'Truly_'
'terribly_'
'allergies_'
'Decided_'
'sheets_'
'bei_'
'girlfriends_'
'clam_'
'ignore_'
'fountains_'
'beside_'
'reply_'
'activities_'
'wasting_'
'Beware_'
'So'
'themed_'
'proud_'
'squeezed_'
'WHAT_'
'pillows_'
'facing_'
'ppl_'
'HIGHLY_'
'Lake_'
'dipped_'
'hallway_'
'meaty_'
'lesson_'
'pitcher_'
'direct_'
'island_'
'ties_'
'Inn_'
'farm_'
'attendant_'
'lighter_'
'der'
'Nick_'
'culture_'
'ending_'
'pregnant_'
'Butter_'
'highest_'
'beach_'
'grooming_'
'65_'
'shaped_'
'patties_'
'Burrito_'
'Foods_'
'whiskey_'
'servings_'
'BLT_'
'respectful_'
'ered_'
'term_'
'packages_'
'purpose_'
'stunning_'
'ricotta_'
'joy_'
'ac_'
'exit_'
'Per'
'pedicures_'
'Brazilian_'
'ations_'
'einem_'
'Asked_'
'jelly_'
'Ja'
'ES_'
'He'
'Cheap_'
'billing_'
'loss_'
'invited_'
'limit_'
'LO'
'nts_'
'hundreds_'
'Ga'
'.\10; _'
'somebody_'
'Bistro_'
'!!!!  _'
'flower_'
'tools_'
'guard_'
'dedicated_'
'balcony_'
'Rio_'
'Brunch_'
'Whether_'
'physical_'
'passionate_'
'ordinary_'
'Unlike_'
'Call_'
'YES_'
'conditioning_'
'behavior_'
'!!!!!_'
'accepted_'
'9pm_'
'ette_'
'Whole_'
'instructions_'
'venture_'
'touched_'
'campus_'
'salsas_'
'res_'
'j'
'IPA_'
'mirror_'
'bananas_'
'2012_'
'draw_'
'Tasty_'
'nach_'
'beats_'
'breading_'
'ahi_'
'ged_'
'décor_'
'Unless_'
'continues_'
'unnecessary_'
'featured_'
'gibt_'
'butt_'
'.\10;-_'
'scary_'
'lasted_'
'palate_'
'rain_'
'lil_'
'greatly_'
'adequate_'
'Table_'
'mixture_'
'panini_'
'embarrassed_'
'bones_'
'si_'
'BE_'
'carnitas_'
'Music_'
'Real_'
'herbs_'
'Frank_'
'luggage_'
'soaked_'
'restrooms_'
'ster_'
'therefore_'
'constant_'
'Jim_'
'taxi_'
'reputation_'
' ) _'
'flights_'
'sed_'
'driven_'
'soo_'
'becoming_'
'accessible_'
'shipping_'
'1000_'
'bien_'
'caramelized_'
'etwas_'
'Eastern_'
'washing_'
'December_'
'button_'
'battered_'
'October_'
'32_'
'brakes_'
'haben_'
'Full_'
'adventurous_'
'carefully_'
'Mango_'
'exceptionally_'
'Thanksgiving_'
'clock_'
'fashioned_'
'Noodles_'
'ans_'
'ig_'
'Ranch_'
'vinaigrette_'
'serviced_'
'hilarious_'
'fitting_'
'apartments_'
' : _'
'ow_'
'shelf_'
'reserve_'
'argue_'
'ence_'
'bird_'
'liquid_'
'holidays_'
'sip_'
'ory_'
'bargain_'
'twenty_'
'zing_'
'printed_'
'Simple_'
'Going_'
'Nutella_'
'cater_'
'wieder_'
'teachers_'
'Mountain_'
'eclectic_'
'Station_'
'ée_'
'tartare_'
'ga_'
'humor_'
'inform_'
'visitors_'
'utensils_'
'11'
'plumbing_'
'disaster_'
'Gordon_'
'Co'
'karaoke_'
'Jo'
'yelled_'
'mo'
'colored_'
'January_'
'boat_'
'renovated_'
'py_'
'delicate_'
'subway_'
'curious_'
'Do'
'amongst_'
'sensitive_'
'Kind_'
'preparation_'
'ex_'
'hitting_'
'falls_'
'watermelon_'
'occasionally_'
'\10; _'
'lay_'
'i'
'challenging_'
'ARE_'
'pastas_'
'belt_'
'require_'
'Guy_'
'hen_'
'Bob_'
'Robert_'
').  \10;\10;_'
'lately_'
'jar_'
'Should_'
'mousse_'
'booze_'
'losing_'
'apples_'
'ser'
'messages_'
'healthier_'
'Ti'
'quarter_'
'barista_'
'edamame_'
'marked_'
'gamble_'
'fishy_'
'hers_'
'Haven_'
'5th_'
'endless_'
'za_'
'taxes_'
'schon_'
'timing_'
'Kids_'
'infused_'
'BA'
'lb_'
'unexpected_'
'babies_'
'oriented_'
'frites_'
'soap_'
'copy_'
'nature_'
'ets_'
'poisoning_'
'housekeeping_'
'eh_'
'Looks_'
'.  '
'3pm_'
'library_'
'kicked_'
'discuss_'
'parm_'
'HI'
'merchandise_'
'Japan_'
'flow_'
'Main_'
'Based_'
'ANY_'
'était_'
'ray_'
'straw_'
'thinks_'
'movers_'
'guessing_'
'died_'
'Pro_'
'ina_'
'Without_'
'Mother_'
'ious_'
'Recommend_'
'Ver'
'brulee_'
'breaking_'
'condescending_'
'arms_'
'breeze_'
'matters_'
'ingredient_'
'upbeat_'
'Michelle_'
'di_'
'masala_'
'deliciousness_'
'gear_'
'delectable_'
'dancers_'
'matcha_'
'executed_'
'cafeteria_'
'smokey_'
'deck_'
'Outstanding_'
'sooooo_'
'Toast_'
'za'
'painless_'
'Walking_'
'rose_'
'decadent_'
'voucher_'
'delay_'
'kindly_'
'overpowering_'
'ens_'
'cases_'
'queen_'
'Caesars_'
'lame_'
'shout_'
'pushing_'
'blended_'
'Factory_'
'rides_'
'bar'
'Olive_'
'Ashley_'
'Care_'
'Noodle_'
'Anthony_'
'slide_'
'picnic_'
'ments_'
'lo'
'discounted_'
'bucket_'
'freezer_'
'containers_'
'Che'
'laser_'
'incident_'
'approximately_'
'catfish_'
'Da'
'incompetent_'
'yr_'
'celebration_'
'shampoo_'
'proof_'
'coffees_'
'. \10;\10;\10;_'
'BIG_'
'dying_'
'Target_'
'Tu'
'fits_'
'consultation_'
'gratuity_'
'raving_'
'DON_'
'attractive_'
'suits_'
'Turkey_'
'whose_'
'frames_'
'Additionally_'
'opposed_'
'sausages_'
'chai_'
'Started_'
've'
'Denny_'
'rubbery_'
'route_'
'Bowl_'
'adventure_'
'marks_'
'refrigerator_'
'pulling_'
'squeeze_'
' !!! _'
'Wo'
'accidentally_'
'beet_'
'European_'
'honesty_'
'sloppy_'
'zone_'
'ker_'
'Mind_'
'Regardless_'
'extensions_'
'PO'
'BS_'
'franchise_'
'confidence_'
'Several_'
'paste_'
'flexible_'
'rewards_'
'gf_'
'State_'
'!)\10;\10;_'
'Granted_'
'dinning_'
'Facebook_'
'smoothly_'
'melts_'
'Nails_'
' :)\10;\10;_'
' - $_'
'tint_'
'gooey_'
'dann_'
'disappoints_'
'ized_'
'companion_'
'Cheesecake_'
'delivers_'
'Short_'
'ruin_'
'over'
'st'
'ire_'
'tout_'
'river_'
'Wa'
'yrs_'
'oder_'
'dump_'
'records_'
'operation_'
'handling_'
'croissants_'
'professionals_'
'ce'
'rays_'
'surrounded_'
'RA'
'Has_'
'Central_'
'generic_'
'sorbet_'
'hundred_'
'30'
'11am_'
'edges_'
'Car_'
'disappeared_'
'gloves_'
'bored_'
'Coming_'
'Quite_'
'Honey_'
'content_'
'---_'
'EVERYTHING_'
'celebrating_'
'cappuccino_'
'occupied_'
'trucks_'
'Jimmy_'
'sunny_'
'30am_'
'units_'
'encourage_'
'y'
'Personally_'
'ears_'
'Palazzo_'
'pistachio_'
'Filipino_'
'Za'
'Pool_'
'Onion_'
'runny_'
'chances_'
'cs_'
'Within_'
'subtle_'
'puppies_'
'subpar_'
'RO'
'sodas_'
'admission_'
'desire_'
'OR'
'Un'
'silly_'
'outrageous_'
'exhibit_'
'mains_'
'sketchy_'
'über'
'sts_'
'Mar'
'newly_'
'gyros_'
'gar'
'Lu'
'Dar'
'talent_'
'Cor'
'Carne_'
''. _'
'rustic_'
'mocha_'
'Fat_'
'  '
'Francisco_'
'inches_'
'patron_'
'OH_'
'eight_'
'therapy_'
'hookah_'
'zen_'
'tow_'
'deserts_'
'supposedly_'
'priority_'
' £_'
'Buy_'
'BTW_'
'death_'
'No'
'Wife_'
'ly'
'colour_'
'combos_'
'military_'
'gracious_'
'Kelly_'
'supporting_'
'  (_'
'do'
'sheet_'
'mash_'
'Add_'
'pastor_'
'Sad_'
'to'
'Style_'
'removal_'
'purple_'
'eatery_'
'4pm_'
':)_'
'hook_'
'ou_'
'moments_'
'bento_'
'e'
'resolved_'
'lift_'
'spaces_'
'significant_'
'irritated_'
'hangout_'
'enormous_'
'covers_'
'Cheers_'
'tie_'
'replacing_'
'15'
'lbs_'
'pear_'
'competent_'
'Used_'
'sur_'
'.)  _'
'ee'
'for'
'zu'
'skilled_'
'frankly_'
'understaffed_'
'Ru'
'hor'
'bug_'
'hence_'
'groceries_'
'snob_'
'café_'
'Up_'
'vision_'
'rum_'
'repeatedly_'
'loan_'
'pretzels_'
'passes_'
'Kobe_'
'Coke_'
'incorrect_'
'E'
'outs_'
'Kudos_'
'confirmation_'
'TIME_'
'necessarily_'
'amounts_'
'successful_'
'teacher_'
'Encore_'
'substitute_'
'cha'
'MO'
'sen_'
'macarons_'
'Light_'
'complimented_'
'arcade_'
'Co_'
'shock_'
'truth_'
'Filet_'
'Josh_'
'sessions_'
'allergy_'
'Water_'
'Ne'
'boarding_'
'Angeles_'
'relief_'
'th'
'ngs_'
'scrumptious_'
'ob'
'cheerful_'
'residents_'
'discover_'
'November_'
'Ate_'
'Think_'
'fills_'
'dealers_'
'kes_'
'Doctor_'
'whim_'
'Canyon_'
'processed_'
'closet_'
'dr_'
'49_'
'sits_'
'shed_'
'Potato_'
'shelves_'
'ti_'
'purchases_'
'players_'
'basement_'
'warn_'
'katsu_'
'alley_'
'maker_'
'breaks_'
'interaction_'
'representative_'
'poker_'
'nonetheless_'
'ide_'
'commented_'
'closes_'
'signing_'
'cashiers_'
'Husband_'
'rule_'
'filter_'
'Bakery_'
'grub_'
'claims_'
'associates_'
'district_'
'supply_'
'ck'
'nous_'
'Ri'
'Taste_'
'Cosmopolitan_'
'yelpers_'
'born_'
'BF_'
'rotation_'
'Stayed_'
'zoo_'
'gentlemen_'
'fo'
'20'
'Toyota_'
'Meh_'
'ni'
'chocolates_'
'varied_'
'McDonalds_'
'rolling_'
'purse_'
'colorful_'
'staring_'
'): _'
'applied_'
'GF_'
'Gold_'
'op_'
'diamond_'
'medication_'
'Talk_'
'directions_'
'Jessica_'
'ma'
'accommodated_'
'DE'
'doughnuts_'
'stadium_'
'Har'
'race_'
'Yet_'
'outlets_'
'Enjoyed_'
'wipe_'
'Du'
'Rude_'
'peanuts_'
'film_'
'wave_'
'locker_'
'press_'
'statement_'
'Living_'
'sleeping_'
'Company_'
'intended_'
'inventory_'
'certificate_'
'"  _'
'Drive_'
'speaks_'
'extreme_'
'Flamingo_'
'Mu'
'responsibility_'
'sweat_'
'addressed_'
'ha'
' .._'
'technicians_'
'knocked_'
'Saw_'
'EVERY_'
'desperate_'
'ul'
'250_'
'backyard_'
'ba'
'Servers_'
'qu_'
', '
'miserable_'
'performers_'
'causing_'
'cravings_'
'laundry_'
'Yonge_'
'cap_'
'stack_'
'automatically_'
'Need_'
'properties_'
'li_'
'Things_'
'PA_'
'arrives_'
'Mon_'
'hated_'
'tri'
'Se'
'TO'
'plays_'
'Royal_'
'Depot_'
'harder_'
'festival_'
'corrected_'
'pounds_'
'factory_'
'Visited_'
'('
'.\10; \10;_'
' [_'
'Wild_'
'del'
'comedy_'
'FA'
'HOT_'
'Ribs_'
'pricier_'
'skinny_'
'Turns_'
'sections_'
'trio_'
'meatloaf_'
'Between_'
'BO'
'patiently_'
'insanely_'
'gra'
'Show_'
'Rd_'
'In'
'baseball_'
'dé'
'ini_'
'outdated_'
'hand'
'. '
'nie_'
'dense_'
'lukewarm_'
'Mill_'
'Carolina_'
'Hill_'
'cally_'
'directed_'
'trick_'
'engaging_'
'appeal_'
'lean_'
'neighbor_'
'SUPER_'
'placing_'
'underneath_'
'mill_'
'appetizing_'
'ze'
'roti_'
'exotic_'
'Ta'
'Rolls_'
'trusted_'
'era_'
'STAY_'
'Hills_'
' .... _'
'convention_'
'Ni'
'perform_'
'outlet_'
'max_'
'vegetarians_'
'homey_'
'reality_'
'annual_'
'chew_'
'suites_'
'ial_'
'addicted_'
'thousands_'
'entrée_'
'btw_'
'stressful_'
'tin'
'creating_'
'on'
'cigarette_'
'bourbon_'
'Cha'
'skillet_'
'raise_'
'Les_'
'joined_'
'advertising_'
'seeds_'
'Cuban_'
'Roasted_'
'hibachi_'
'responsible_'
'Sea_'
'ji'
'Pita_'
'Fitness_'
'organization_'
'r'
'Classic_'
'displayed_'
'MUCH_'
'opt_'
'Ugh_'
'800_'
'sofa_'
'excuses_'
'ade_'
'nu'
'para'
'carts_'
'lined_'
'underwhelming_'
'ko'
'jokes_'
'vast_'
'slots_'
'professionally_'
'September_'
'RI'
'ru'
'ei'
'drain_'
'cast_'
'intense_'
'Hilton_'
'smothered_'
'spin_'
'mornings_'
'cole_'
'Solid_'
'washer_'
'pic_'
'rt_'
'Night_'
'grain_'
'designs_'
'guaranteed_'
'HH_'
'decently_'
'Rose_'
'Mi'
'Omg_'
'Fortunately_'
'GM_'
'WITH_'
'obnoxious_'
'quotes_'
'idiot_'
'DO'
'backed_'
'lacks_'
'charred_'
'bin_'
'rub_'
'airy_'
'toddler_'
'packaged_'
'aggressive_'
'ugly_'
'Va'
'FI'
'Anyone_'
'120_'
'glazed_'
'streets_'
'fillings_'
'thankfully_'
'largest_'
'Hi'
'husbands_'
'resist_'
'comforting_'
'Calamari_'
'2011_'
'peace_'
'cider_'
'BU'
'mobile_'
'naturally_'
'Authentic_'
'Double_'
'whoever_'
'taro_'
'settle_'
'Fo'
'magical_'
'Paradise_'
'Ze'
'reviewing_'
'disgusted_'
'Until_'
'lau'
'chatted_'
'Hu'
'ul_'
'Dental_'
'devoured_'
'bare_'
'pi'
'qui'
'bo'
'woke_'
'finance_'
'hunt_'
'apply_'
'Gri'
'citrus_'
'HA'
'Amy_'
'industrial_'
'dis'
'injury_'
'Ben_'
'practices_'
'lifetime_'
'IF_'
'marrow_'
'pecan_'
'mir_'
'ada_'
'peaceful_'
'force_'
'Lucky_'
'Bedienung_'
'pairing_'
'mechanics_'
'Justin_'
'és_'
'hesitation_'
'cable_'
'Wasn_'
'è'
'dumpling_'
'skill_'
'Bobby_'
'2pm_'
'48_'
'eaters_'
'ges_'
'al'
'birds_'
'prep_'
'Mirage_'
'trainer_'
'bulgogi_'
'ably_'
'understandable_'
'O'
'wird_'
'diagnosed_'
'sky_'
'ceilings_'
'AWAY_'
'mis'
'ving_'
'renting_'
'Vegan_'
'tests_'
'presence_'
'gi'
'Considering_'
'korean_'
'pico_'
'jazz_'
'exercise_'
'Nu'
'exist_'
' ('
'**_'
'La'
'immediate_'
'NOTHING_'
'dort_'
'Yay_'
'junk_'
'back'
'enthusiastic_'
'mehr_'
'rounds_'
'Live_'
'frills_'
'Cra'
'Al_'
'Lounge_'
'tartar_'
'vibes_'
'designer_'
'advertise_'
'ef'
'tur'
'groomer_'
' $ _'
'sucker_'
'spotless_'
'soak_'
'discussed_'
'native_'
'Jennifer_'
'Ke'
'fondue_'
'concierge_'
'Er'
'brewed_'
'el'
'crying_'
'Cosmo_'
'jumped_'
'player_'
'Bought_'
'Lovely_'
'chilled_'
'burning_'
'deserved_'
'tre'
'dime_'
'Boston_'
'oo_'
'ise_'
'Margarita_'
'Ford_'
'Cro'
'ht_'
'socks_'
'dumb_'
'Luxor_'
'Fry_'
'fucking_'
'expectation_'
'SA'
'stools_'
'ana_'
'allowing_'
'"'
'sans_'
'gripe_'
'REAL_'
'out'
'Ci'
'boots_'
'Te'
'85_'
'resolve_'
'curly_'
'GET_'
'sand_'
'rushing_'
'man'
'Asada_'
'zo_'
'Blvd_'
'shitty_'
'holds_'
'se'
'Beach_'
'the'
'procedures_'
'wind_'
'Rooms_'
'glaze_'
'Camelback_'
'nes_'
'skimp_'
'leaking_'
'Par'
'yaki_'
'sto'
'chosen_'
'splurge_'
'ep'
'Saturdays_'
'narrow_'
'buildings_'
'reschedule_'
'props_'
'overlooking_'
'baguette_'
'assigned_'
'si'
'acting_'
'riding_'
'browse_'
'bistro_'
'allergic_'
'AL_'
'drunken_'
'Cold_'
'Banana_'
'ATM_'
'or'
'greek_'
'lies_'
'up'
'Lemon_'
'Shi'
'adore_'
'Hut_'
'freshest_'
'Box_'
'Tri'
'Ra'
'Es_'
') \10;\10;_'
'carried_'
'Internet_'
'triple_'
'matched_'
'explains_'
'definately_'
'lash_'
'mich_'
'ber_'
'airline_'
'complicated_'
'tends_'
'halfway_'
'Ins'
'bachelorette_'
'crawfish_'
'. \10;- _'
'Sarah_'
'chi'
'ied_'
'WE_'
'recipes_'
'tattoos_'
'hostesses_'
'chu'
'port_'
'sirloin_'
'Southwest_'
'!!! \10;\10;_'
'en'
'activity_'
'evenings_'
'u'
'ke'
'foam_'
'expertise_'
'pu'
'maintain_'
'inconsistent_'
'videos_'
'terminal_'
'core_'
'jacket_'
'headache_'
'hi'
'te'
'ously_'
'SE'
'tune_'
'fortunate_'
'Moving_'
'efficiently_'
'stretch_'
'Art_'
'Life_'
'shorter_'
'disrespectful_'
'quinoa_'
'Jose_'
'District_'
'horseradish_'
'sha'
'nurses_'
'ju'
'flip_'
'no'
'Hell_'
'wenn_'
'position_'
'lane_'
'tears_'
'heavily_'
'bay_'
'ASAP_'
'Re'
'wurde_'
'CK_'
'relationship_'
'listens_'
'El'
'thoughtful_'
'spoken_'
'delighted_'
'delayed_'
'customize_'
'brake_'
'Google_'
'remodeled_'
'shoulders_'
'Je_'
'00pm_'
'crafted_'
'in'
'ranging_'
'bo_'
'resto_'
'Fridays_'
'7th_'
'ez_'
'? '
'succulent_'
'Zu'
'Tofu_'
'operated_'
'li'
'EL'
'ie'
'RE'
'Birthday_'
'boneless_'
'skipped_'
'manger_'
'defiantly_'
'spiciness_'
'heels_'
'gel'
'communicate_'
'ceremony_'
'.  $_'
'Drink_'
'oo'
'offices_'
'Coast_'
'arrangement_'
'yell_'
'effective_'
'ver'
'grace_'
'de'
'grandma_'
'EN'
'ba_'
'Clearly_'
'ing'
'Ge'
'sti'
'shi'
'her'
'sticking_'
'promotion_'
'Given_'
' !!_'
'arranged_'
'AN'
'treating_'
'Daniel_'
'hangover_'
'artwork_'
'，_'
'Na'
'ed'
'photographer_'
'buzz_'
'ghetto_'
'Lo_'
'guilty_'
'fruity_'
'Mongolian_'
'extras_'
'roughly_'
'habe_'
'oi'
'gaming_'
'preparing_'
'Monte_'
'Makes_'
'navigate_'
'backs_'
'regards_'
'integrity_'
'bottomless_'
'Hospital_'
'centre_'
'Tuesdays_'
'suspect_'
'Getting_'
'SU'
'effect_'
'cow_'
'remodel_'
'Johnny_'
'winning_'
'sore_'
'crown_'
'\10;* _'
'Cap'
'Ho'
'vacuum_'
'searched_'
'owns_'
'finest_'
'Strawberry_'
'ko_'
'dare_'
'smelling_'
'occasional_'
'Ray_'
'Hash_'
'teach_'
'boards_'
'Fi'
'ultimately_'
'trek_'
'oxtail_'
'ily_'
'bummer_'
'web_'
'fi_'
'wake_'
'Tons_'
'couldnt_'
'radio_'
'ating_'
'haircuts_'
'Avenue_'
'pup_'
'speedy_'
'obsessed_'
'Fa'
':\10;-_'
'remaining_'
'shooting_'
'cu'
'bummed_'
'brilliant_'
'lt_'
'swing_'
'albeit_'
'\10;\10;'
'thicker_'
'ho'
'entertained_'
'Creek_'
'ci'
'gin_'
'di'
'visible_'
'Wendy_'
'Li'
'shy_'
'contemporary_'
'friendliness_'
'upfront_'
'refunded_'
'stickers_'
'AR'
'UPDATE_'
'under'
'quit_'
'Cali_'
'cra'
'privacy_'
'planet_'
'berries_'
'mmm_'
'conditioner_'
'hockey_'
'ho_'
'ON'
'12'
'shave_'
'', _'
'zi'
'nightclub_'
'du'
'Yesterday_'
'unbelievably_'
'char_'
'frustration_'
'Brought_'
'approved_'
'bake_'
'Wouldn_'
'rosemary_'
'exquisite_'
'denied_'
'Ju'
'bride_'
'Tre'
'grabbing_'
'taught_'
'Stephanie_'
'bridge_'
'sundae_'
'killed_'
'mar'
'showers_'
'lunches_'
'che'
'TA'
'ASU_'
'11pm_'
'Uber_'
'Donuts_'
'repeated_'
'oatmeal_'
'legal_'
'leaf_'
'recognize_'
'milkshakes_'
'Ku'
'LL'
'Told_'
'ber'
'Go'
'Adam_'
'cities_'
'ement_'
'vo'
'disorganized_'
'Awful_'
'OUT_'
'Mushroom_'
'10am_'
'technique_'
'caesar_'
'mimosa_'
'adjust_'
'enti'
'aisle_'
'Rick_'
'attitudes_'
'Valentine_'
'estate_'
'Tao_'
'Vi'
'NT_'
'eyebrow_'
'Later_'
'BMW_'
'chick_'
'JUST_'
'nerve_'
'thousand_'
'XS_'
'lat'
'extraordinary_'
'baklava_'
'BAD_'
'sharp_'
'TI'
'cranberry_'
'WA'
'Alfredo_'
'ants_'
'February_'
'arrangements_'
'bi'
'condo_'
'warmer_'
'Resort_'
'pe_'
'halibut_'
'flawless_'
'Served_'
'ultimate_'
'suddenly_'
'overs_'
'ot_'
'lap_'
'Hello_'
'NC_'
'vin'
'ras'
'enjoys_'
'nd'
'pathetic_'
'journey_'
'Si'
'freundlich_'
'*'
'homes_'
'Point_'
'uneven_'
'sin'
'gigantic_'
'basics_'
'randomly_'
'beforehand_'
'Pub_'
'!).  _'
'tissue_'
'pairs_'
'Animal_'
'tummy_'
'sampling_'
'drenched_'
'Portion_'
'creepy_'
'bly_'
'leftover_'
'friendliest_'
'da'
'Sun'
'lattes_'
'colleagues_'
'assisted_'
'yl'
'dangerous_'
'). \10;_'
'primary_'
'cheesesteak_'
'fond_'
'trainers_'
'ME'
')! _'
'bench_'
'witnessed_'
'confusion_'
'lecker_'
'ssi'
'eastern_'
'piano_'
'exhibits_'
'36_'
'treasure_'
'deliciously_'
'ery_'
'Gave_'
'Employees_'
'lla_'
'uber_'
'loaf_'
'active_'
'ole_'
'unsure_'
'sor'
'existent_'
'600_'
'seemingly_'
'warehouse_'
'ced_'
'bi_'
'jalapenos_'
'Le'
'justify_'
'worries_'
'ore_'
'ney_'
'mahi_'
'ina'
'baristas_'
'gh_'
'Third_'
'shells_'
'meets_'
'po_'
'fro'
'LE_'
'Gyro_'
'tradition_'
'significantly_'
'tenderloin_'
'To'
'ue'
'overnight_'
'ts'
'temp_'
'Circus_'
'Bur'
'ri_'
'aroma_'
'lie'
'bulk_'
'becomes_'
'voicemail_'
'is'
'commercial_'
'iPad_'
'Ac'
'Does_'
'DAY_'
'countless_'
'drinker_'
'curries_'
'Markham_'
'task_'
'signage_'
'increase_'
'doesnt_'
'Ein'
'encounter_'
'bou'
'Yu'
'sauteed_'
'beets_'
'Doesn_'
'University_'
'media_'
'".\10;\10;_'
'brief_'
'Milk_'
'HE'
'indian_'
'AD'
'PLEASE_'
'silver_'
'batch_'
'weekdays_'
'Perfectly_'
'Pepper_'
'Bo'
'wo'
'nan'
'Panda_'
'Mat'
'!'
'NA'
'catching_'
'Earl_'
'eri'
'bre'
'SE_'
'India_'
'pro'
'ein'
'alterations_'
'einer_'
'flies_'
'ZERO_'
'rail_'
'AN_'
'bridal_'
'HAD_'
'air'
'educated_'
'pleasing_'
'Bar'
'..\10;_'
' _'
'que'
'om_'
'lli'
'stolen_'
'separately_'
'mu'
'needless_'
'mold_'
'Veggie_'
'Fine_'
'rt'
'expired_'
'Tra'
'cleaners_'
'wedge_'
'depends_'
'!  \10;_'
'lessons_'
'CO'
'plant_'
'dly_'
'kindness_'
'application_'
'Incredible_'
'" - _'
'BEWARE_'
'School_'
'omg_'
'Shack_'
'port'
'independent_'
'dra'
'bur'
'Corn_'
'thanked_'
'napkin_'
'asleep_'
'DC_'
'BI'
'WiFi_'
'Favorite_'
'uni_'
'lousy_'
'VI'
'True_'
'scoops_'
'tro'
'toe_'
'Mi_'
'Andy_'
'instant_'
'fireplace_'
'vor_'
'ta'
'ht'
'Shake_'
'Gotta_'
'retro_'
'mer_'
'1pm_'
'.\10;'
'woo'
'Due_'
'Al'
'demand_'
'shrimps_'
'supermarket_'
'textures_'
'grey_'
'cho'
'Swiss_'
'Palms_'
'solely_'
'wontons_'
'una'
'swim_'
'ss'
'rescue_'
'medicine_'
'limo_'
'acrylic_'
'Front_'
'TT'
'ere_'
'Eve_'
'Sha'
'cigar_'
'outdoors_'
'drizzled_'
'Expect_'
'cucumbers_'
'Miso_'
'bor'
'Brown_'
'tikka_'
'Lea'
'spilled_'
'Deli_'
'oa'
'bu'
'\10;*_'
'kabob_'
'apologies_'
'Metro_'
'bday_'
'resident_'
'basketball_'
'\10;\10;\10;_'
'me'
'THANK_'
'Sausage_'
'lunchtime_'
'Flo'
'connection_'
'sh'
'inquired_'
'fooled_'
'ntly_'
'loyalty_'
'indulge_'
'false_'
'smiled_'
'STILL_'
'Ms_'
'Andrew_'
'Skip_'
'TWO_'
'ched_'
'hollandaise_'
'bold_'
'Shame_'
'Local_'
'shipped_'
'transfer_'
'era'
'Wisconsin_'
'Arrived_'
'apparent_'
'waits_'
'questioned_'
'po'
'hiring_'
'Brandon_'
'experiencing_'
'Nobody_'
'14'
'horribly_'
'.\10;\10;- _'
'technology_'
'Waiter_'
'mission_'
'energetic_'
'benches_'
'fri'
'... '
'tenants_'
'childhood_'
'attempts_'
'slammed_'
'whip_'
'horrendous_'
'Reasonable_'
'wee_'
'walnut_'
'torn_'
'piled_'
'!! \10;_'
'hide_'
'Smith_'
'wiped_'
'salesperson_'
'io_'
'cans_'
'pays_'
'lip_'
'empanadas_'
'material_'
'filed_'
'eel_'
'cracker_'
'Experience_'
'fe_'
'Overpriced_'
'leg'
'fourth_'
'hosts_'
'holy_'
'financial_'
'GTA_'
'structure_'
'stole_'
'warmly_'
'l'
'hot'
'Stuttgart_'
'ble'
'Over'
'yellowtail_'
'prove_'
'earn_'
'carrying_'
'cry_'
'Delivery_'
'stamp_'
'lamp_'
'rang_'
'Fe'
'warmed_'
'spe'
'permanent_'
'forms_'
'.\10;\10;'
'Salt_'
'Ahi_'
'coverage_'
'ye'
'sourdough_'
'shall_'
'fer'
'Year_'
'transferred_'
'provider_'
'luxurious_'
'anticipated_'
'martinis_'
'compassionate_'
'nope_'
'cardboard_'
'Dirty_'
'werden_'
'tricks_'
'Rainbow_'
' . . . _'
'brie_'
'......._'
'depth_'
'The'
'End_'
'Ad'
'Vin'
'Recommended_'
'sprinkled_'
'papers_'
'Glendale_'
'wirklich_'
'quicker_'
'ort'
'Cru'
'gu'
'] _'
'Chi'
'lab_'
'Fabulous_'
'progress_'
'contained_'
'NE_'
'stuffing_'
'wa'
'trails_'
'crumbs_'
'Remember_'
'fre'
'alles_'
'vor'
'laws_'
'ering_'
'Area_'
'spit_'
'Pin'
'catered_'
'Um_'
'brush_'
'a'
'flew_'
'leading_'
'banh_'
'Studio_'
'dripping_'
'Fashion_'
'den'
'ER'
'stressed_'
'TERRIBLE_'
'appliances_'
'DA'
'39_'
'popping_'
'Review_'
'Tomato_'
'hiking_'
'sch_'
'ounce_'
'Mississauga_'
'FROM_'
'spa'
'Amanda_'
'shopped_'
'norm_'
'ou'
'indicated_'
'UP_'
'wheels_'
'fuss_'
'trustworthy_'
'finds_'
'dreams_'
'source_'
'requires_'
'mojito_'
'meds_'
'tanning_'
')\10;- _'
'HO'
'sau'
'reaction_'
'displays_'
'bat_'
'!? _'
'Bra'
'quiche_'
'remain_'
'chilli_'
'Nachos_'
'ür'
'tempted_'
'wn_'
'owe_'
'calzone_'
'Completely_'
'glance_'
'dislike_'
'ann'
'contacts_'
'accent_'
'Yo'
'Basil_'
'ré'
'MORE_'
'busier_'
'availability_'
'pots_'
'Bat'
'micro'
'brûlée_'
'shorts_'
'BYOB_'
'candle_'
'crusted_'
'Spoon_'
'Pe'
'NO'
'Gi'
'Ambiente_'
'praise_'
'canal_'
'KI'
'Bel'
'BE'
'hin'
'Thomas_'
'loads_'
'slower_'
'hed_'
'din'
'Ye'
'excitement_'
'aus'
'Tire_'
'LE'
'proximity_'
'thoughts_'
'loudly_'
'ine'
'Salsa_'
'urban_'
'su'
'Panera_'
'ti'
'sub'
'Char'
'touches_'
'marketing_'
'UR'
'cardio_'
'decisions_'
'Bean_'
'freezing_'
'mochi_'
'2010_'
'tit'
'Farm_'
'des'
'bear_'
'Smoked_'
'rainbow_'
'lackluster_'
'aisles_'
'freakin_'
'brain_'
'Warm_'
'fa'
'.'
'Trader_'
'\10;'
'ert_'
'goal_'
'floating_'
'EXCELLENT_'
'liver_'
'genius_'
'severe_'
'paneer_'
'flu'
'Rachel_'
'Max_'
'Fat'
'equal_'
'of'
'Orleans_'
'Mus'
'phoenix_'
'elle_'
'useless_'
'celery_'
'Disappointed_'
'tear_'
'ner'
'zy_'
'versus_'
'updates_'
'ming_'
'dozens_'
'fudge_'
'alike_'
'sion_'
'elderly_'
'Brisket_'
'boo'
'Bonus_'
'rows_'
'Professional_'
'lowest_'
'ws_'
'Danny_'
'ol'
'ji_'
'benefits_'
'Surprisingly_'
'xi'
'facials_'
'NG_'
'PRO'
'delivering_'
'alive_'
'mates_'
'FANTASTIC_'
'tater_'
'18'
'ines_'
' -  _'
'Left_'
'AL'
'lar'
'tacky_'
'stare_'
'payments_'
'sie_'
'vely_'
'Watch_'
'secure_'
'Dim_'
'Bartender_'
'bouncer_'
'BACK_'
'ast_'
'wi_'
'horse_'
'"\10;\10;_'
'concrete_'
'Wood'
'ß'
'flooring_'
'consists_'
'cannoli_'
'De'
'tamales_'
'rye_'
'fe'
'Lady_'
' ? _'
'measure_'
'Gra'
'plumber_'
'imagined_'
'RE_'
'Baked_'
'dre'
'strength_'
'arguing_'
'remote_'
'weights_'
'Reuben_'
'VE_'
'Pro'
'car'
'urgent_'
'accordingly_'
'~_'
'pros_'
'GE'
'?"  _'
'multi_'
'confit_'
'ric'
'Halloween_'
'link_'
'!?'
'Am_'
'Sahara_'
'Pricing_'
'Maria_'
'brussel_'
'Summer_'
'ß_'
'herb_'
'handy_'
'Social_'
'Neither_'
'posting_'
'estimated_'
'stained_'
'dragon_'
'sauna_'
'Surprise_'
'Coconut_'
'ö'
'sweeter_'
'gyoza_'
'ward_'
'avoided_'
'Men'
'pre'
'Santa_'
'Ale_'
'scar'
'macaroons_'
'exposed_'
'overlooked_'
'jalapeños_'
'shellac_'
'pressured_'
'. \10;\10;'
'fighting_'
'Ha'
' ;)_'
'notified_'
'hearts_'
'Crazy_'
'Pet'
'guns_'
'brioche_'
'Sky_'
'ware_'
'Slow_'
'-'
'sil'
'mentioning_'
'pon'
'behold_'
'Nicole_'
'tab'
'Fle'
'Bon'
'ear'
'remained_'
'ont_'
'ch'
'CH_'
'electric_'
'capacity_'
'mos'
'crushed_'
'returns_'
'drawn_'
'Il_'
'Mart_'
'fore'
'Plaza_'
'scrub_'
'tra'
'thi'
'corners_'
'Peter_'
'yours_'
'cla'
'LI'
'sho'
'Mine_'
'uptown_'
'traveled_'
'ato'
'RUDE_'
'maid_'
'gyms_'
'stylish_'
'ü'
'remains_'
'pe'
'carries_'
'Yep_'
'Dad_'
'ata_'
'pin'
'YELP_'
'NE'
'fuck_'
'fails_'
'Poke_'
'ual_'
'sticker_'
'personnel_'
'venues_'
'trays_'
'mo_'
'vermicelli_'
'profit_'
'candles_'
'asse'
'wondered_'
'latter_'
'category_'
'199'
'? \10;_'
'na'
'english_'
'Works_'
'Pink_'
'sta'
'convince_'
'Ol'
';_'
'piercing_'
'9am_'
'trout_'
'sun'
'breakfasts_'
'ori'
'Mile_'
'ita_'
'ffe'
'au'
'officially_'
'materials_'
'faced_'
'dd'
'Rob_'
'Years_'
'canceled_'
'sparkling_'
'polenta_'
'expressed_'
'Want_'
'tar'
'outcome_'
'bull_'
'ino_'
'admitted_'
'alarm_'
'TY_'
'Dragon_'
'title_'
'Original_'
'testing_'
'series_'
'doughy_'
'Centre_'
'fortune_'
'belongings_'
'competitors_'
'ter'
'transmission_'
'referral_'
'AM'
'110_'
'vets_'
'cher_'
'don'
'clueless_'
'infection_'
'engaged_'
'Heather_'
'sport_'
'butcher_'
'lin'
'egg'
'Cu'
'charcuterie_'
'Sea'
'er'
'über_'
'Ended_'
'gre'
'feast_'
'ics_'
'Ro'
'swi'
'theaters_'
'Bru'
'seeking_'
'differently_'
'kan'
'fabric_'
'Taylor_'
'Elvis_'
'ical_'
'isnt_'
'fuel_'
'creativity_'
'chilly_'
'MI'
'Fair_'
'locks_'
'Thought_'
'Stu'
'diagnosis_'
'At'
'bro'
')'
'ka'
'fra'
'specialist_'
'senior_'
'dealerships_'
'prevent_'
'Personal_'
'packs_'
'Fu'
'peu_'
'. \10;\10; _'
'bus'
'ec'
'carb_'
'eb'
'Ca'
'browsing_'
'techniques_'
'sand'
'deluxe_'
'bumper_'
'WE'
'Seating_'
'camp_'
'Angel_'
'drug_'
'KE'
'DID_'
'covering_'
'tt'
'dente_'
'assorted_'
'Fox_'
'Pot_'
'Dis'
'CAN_'
'hu'
': \10;\10;_'
'!)_'
'inter'
'Might_'
'Patrick_'
'rubber_'
'ger'
'downfall_'
'vendor_'
'quesadillas_'
'overrated_'
'31_'
'threading_'
'beaten_'
'adjacent_'
'je'
'handmade_'
'execution_'
'consideration_'
'emp'
'insult_'
'flakes_'
'fallen_'
'homeless_'
'Seattle_'
'rooftop_'
'cke'
'mass_'
'coated_'
'attraction_'
'Jersey_'
'anti'
'clu'
'essen_'
'PE'
'su_'
'Ben'
'solo_'
'shiny_'
'crusty_'
'Jay_'
'Speaking_'
'Melissa_'
'map_'
'lin_'
'ig'
'formal_'
'wandering_'
'drag_'
'DU'
'motor_'
'introduce_'
'production_'
'fi'
'tvs_'
'sunset_'
'separated_'
'seek_'
'timer_'
'scramble_'
'contrast_'
'Mari'
'IMO_'
'va_'
'Mor'
'recognized_'
'mes_'
'USA_'
'newest_'
'Kung_'
'??  _'
'classics_'
'overdone_'
'grape_'
'freeway_'
'); _'
'jacuzzi_'
'demeanor_'
'climbing_'
'Good'
'niece_'
'mb'
'Nor'
'.)_'
'iest_'
'Carl'
'00'
'anxiety_'
'fois_'
'greater_'
'AC'
'hy_'
'ki'
'engagement_'
'crackers_'
'alignment_'
'PHX_'
'Felt_'
'Office_'
': $_'
'stacked_'
'reheated_'
'Zi'
'Ji'
'Imagine_'
'sautéed_'
'target_'
'coolest_'
'Marriott_'
'40'
'justice_'
'War'
'Kong_'
'Desserts_'
'slip_'
'reported_'
'Pure_'
'creamed_'
'cing_'
'Airport_'
'scones_'
'individuals_'
'sweetest_'
'bla'
'CK'
'he'
'16'
'fait_'
'Party_'
'remembers_'
'carpaccio_'
'nk_'
'humble_'
'Louis_'
'ri'
'Col'
'eateries_'
'sna'
'oni'
'lic'
'ils_'
'Pan'
'Lin'
'Brussels_'
'Dont_'
'Wicked_'
'Greg_'
'stuffy_'
'lotion_'
'Win'
'Wanted_'
'Pan_'
'stones_'
'Potatoes_'
'hunger_'
'ang_'
'sar'
'101_'
'unassuming_'
'lea'
'conscious_'
'electrical_'
'tarts_'
'ea'
'tricky_'
'leads_'
'An'
'thinly_'
'determined_'
'quarters_'
'puree_'
'Eventually_'
'lan'
'unorganized_'
'rit'
'interactive_'
'epic_'
'uk'
'Moon_'
'Not'
'tape_'
'?). _'
'ventured_'
'?!  _'
'encouraged_'
'dentists_'
'Iced_'
'cat'
'ab'
'IC'
'flan_'
'Nissan_'
'Dan'
'surprises_'
'lle_'
'Vanilla_'
'Haha_'
'BBB_'
'skirt_'
'blackened_'
'Craig_'
'partial_'
'net_'
'Spa'
'Hall_'
'comfortably_'
'free'
'existed_'
'Ma'
'Kar'
'Bri'
'Ste'
'IS'
'parent_'
'shine_'
'expand_'
'NOW_'
'Hong_'
'conclusion_'
'Ramsay_'
'truffles_'
'chunk_'
'be'
'AFTER_'
'fu'
'Auto'
'bye_'
'aux_'
'GO'
'spirit_'
'Eye_'
'Amazon_'
'grandmother_'
'guided_'
'bouncers_'
'staffs_'
'sle'
'viel_'
'nom_'
'bao_'
'50'
'Min'
'stre'
'muscles_'
'Tasted_'
'SS_'
'addictive_'
'Restaurants_'
'pouring_'
'kinks_'
'Sean_'
'nuggets_'
'aw'
'stic_'
'speakers_'
'horchata_'
'Marquee_'
' !!!_'
'microwaved_'
'specially_'
'primarily_'
'Soleil_'
'38_'
'Museum_'
'Mondays_'
'Along_'
'blows_'
'meetings_'
'abs'
'renovation_'
'lu'
'Country_'
'En'
'Je'
'jus_'
'mole_'
'einfach_'
'colleague_'
'Ron_'
'us'
'um'
'drops_'
'fla'
'Hair_'
'Gro'
'physically_'
'petite_'
'Bre'
'Cash_'
'toffee_'
'bal'
'Massage_'
'touching_'
'SO'
'pul'
'Discount_'
'fan'
'lanes_'
'perspective_'
'ians_'
'Sandwiches_'
'Except_'
'pa_'
'cac'
'guitar_'
'rounded_'
'ken'
'Kinda_'
'western_'
'Services_'
'Baby_'
'ND_'
'profile_'
'Middle_'
'bothering_'
'33_'
'upside_'
'smallest_'
'at'
'cons_'
'pops_'
'Business_'
'ub'
'platters_'
'contractor_'
'aunt_'
'reduced_'
'adjusted_'
'Fra'
'vie'
'tte_'
'THERE_'
'Group_'
'mirrors_'
'Ki'
'vary_'
'southwest_'
'fire'
'Carlo_'
'sa'
'requesting_'
'Sashimi_'
'shing_'
'japanese_'
'comparing_'
'ne'
'drawback_'
'Gross_'
'CA'
'embarrassing_'
'agreement_'
'ham'
'Gu'
'stra'
'ry'
'curtains_'
'bon'
'talks_'
'scenery_'
'gi_'
'ell_'
'wore_'
'down'
'bling_'
'Diner_'
'sincere_'
'nonsense_'
'projects_'
'chunky_'
'string_'
'ashamed_'
'an'
'hazelnut_'
'roots_'
'packing_'
'nos_'
'Yoga_'
'Ar'
'cajun_'
'Forget_'
'remarkable_'
'od_'
'wi'
'ries_'
'Secondly_'
'Interesting_'
'manicures_'
'es'
'ele'
'Spinach_'
'Bla'
'sin_'
'Mac'
'Fri'
'los_'
'questionable_'
'yea_'
'men'
'doughnut_'
'rotating_'
'Da_'
'ur'
'complementary_'
'favourites_'
'Avocado_'
'Ya'
'hon'
'ah'
'Gar'
'Diamond_'
'的'
'quirky_'
'GA'
'decade_'
'stronger_'
'visitor_'
'pin_'
'sel'
'expense_'
'roller_'
'Po'
'verify_'
'sit'
'sisters_'
'pa'
'sunday_'
'maki_'
' \10;- _'
'Del_'
'vibrant_'
'certified_'
'removing_'
'nk'
'Ai'
'friday_'
'sla'
'ado_'
'Less_'
'tta_'
'tom'
'Gelato_'
'Cre'
'!!!!\10;\10;_'
'refried_'
'creations_'
'Walk_'
'pra'
'gumbo_'
'ultra_'
'ret'
'bee'
'tasteful_'
'ken_'
'isi'
'wherever_'
'situated_'
'decoration_'
'op'
'Be'
'naked_'
'llo_'
'Ex'
'Def_'
'Belly_'
'puffs_'
'yu'
'rie_'
'Qua'
'Pet_'
'Cou'
'sugary_'
'penne_'
'ible_'
'Uni'
'steer_'
'cha_'
'United_'
'. \10; _'
'Mex_'
'. \10;'
'biased_'
'dang_'
'IN'
'GI'
'overbearing_'
'concoction_'
'authenticity_'
'Ken_'
'Read_'
'soccer_'
'gesture_'
'stu'
'endroit_'
'attack_'
'Champaign_'
'mary_'
'Pulled_'
'coating_'
'Arm'
') '
'who'
'Tiffany_'
'sudden_'
'dingy_'
'Ban'
'-  _'
'bri'
'cotton_'
'red'
'ex'
'ben_'
'Ce'
'ong_'
'ir_'
'dar'
'storm_'
'rest'
'racks_'
'lamps_'
'google_'
'rein'
'conditions_'
'someplace_'
'cap'
'pen_'
'lawn_'
'contacting_'
'Ginger_'
'texted_'
'Paid_'
'virtually_'
'q_'
'Unbelievable_'
'ste'
'kle'
'excessive_'
'dep'
'tremendous_'
'pointing_'
'camp'
'ars_'
'lips_'
'Ab'
'national_'
'cure_'
'strangers_'
'owed_'
'omi'
'nic'
'verde_'
'stingy_'
'assure_'
'rainy_'
'refilling_'
'Enough_'
'picks_'
'?), _'
'chipped_'
'Off_'
'sophisticated_'
'barbers_'
'8am_'
'plantains_'
'brow_'
'%'
'Western_'
'washroom_'
'heartbeat_'
'Kat'
'ES'
'severely_'
'bol'
'viewing_'
'referring_'
'joking_'
'Ref'
'ban'
'chi_'
'reference_'
'VE'
'ya'
'flash_'
'proved_'
'hatte_'
'Red'
'overheard_'
'hal'
'West'
'ge'
'existing_'
'award_'
'!!!!!! _'
'cuticles_'
'network_'
'vraiment_'
'Sher'
'ske'
'ida'
'downright_'
'SM'
'Me'
'hefty_'
'dee'
'Ger'
'"._'
'sag'
'costumes_'
'jumbo_'
'Ok'
'De_'
'loo'
'Ber'
'ram'
'gems_'
'ami'
'expanded_'
'chy_'
'cas'
'ack_'
'Beyond_'
'staples_'
'Everytime_'
'daycare_'
'aspects_'
'Easily_'
'run'
'locate_'
'ards_'
'aa'
'turf_'
'pads_'
'philly_'
'fur_'
'arrogant_'
'nen_'
'jumping_'
'Friends_'
'....  _'
'MSG_'
'Mad'
'Ir'
'unhelpful_'
'Pi'
'aussi_'
'bb'
'Stone_'
'Café_'
'tube_'
'Wei'
'TS_'
'reminiscent_'
'grand'
'inquire_'
'adjustments_'
'Waffles_'
'OM'
'Amber_'
'aba'
'cubes_'
'brownies_'
'Steakhouse_'
'Pen'
'ink_'
'fixe_'
'[_'
'workouts_'
'splitting_'
'home'
'Juicy_'
'toy_'
'jerky_'
'Truffle_'
'kin_'
'ide'
'our'
'o'
'ange'
'laying_'
'Bloor_'
'wouldnt_'
'2am_'
'" '
'tamale_'
'Robin_'
'$'
'super'
'prawns_'
'sche'
'skimpy_'
'ition_'
'chin'
'american_'
'caprese_'
'PA'
'2000_'
'STARS_'
'Os'
'tunes_'
'ree'
'xt'
'ano_'
'rely_'
'mer'
'bell'
'pat'
'paella_'
'electronic_'
'Des'
'nine_'
'gne'
'Ty'
'stared_'
'fic'
'upsell_'
'puff_'
'ena'
'argued_'
'ara'
'ar'
'offended_'
'Far'
'circle_'
'Sugar_'
'Richard_'
'mm_'
'om'
'ect'
'corn'
'wound_'
'soaking_'
'rob'
'Super'
'Giant_'
'tropical_'
'savoury_'
'même_'
'TIP_'
'My'
'io'
'mug_'
'trailer_'
'sizzling_'
'Miss_'
'upcoming_'
'Polish_'
'considerate_'
'Poutine_'
'kudos_'
'yan'
'teaching_'
'peri'
'dissatisfied_'
'urs_'
'granted_'
'Waffle_'
'useful_'
'mel'
'groomed_'
'!  '
'Fre'
'par'
'Funny_'
'urge_'
'PERFECT_'
'France_'
'cht_'
'pest_'
'Ed'
'EAT_'
'AS'
'vers_'
'Sin_'
'Mit'
'Jeremy_'
'therapists_'
'distinct_'
'...... _'
'waxed_'
'landed_'
'parks_'
'mat'
'Au'
'renovations_'
'addicting_'
'sco'
'lentil_'
'samosas_'
'aid_'
'portioned_'
'plug_'
'lessly_'
'AP'
'tea'
'.  "_'
'scan_'
'savings_'
'ref'
'garnish_'
'drizzle_'
'anxious_'
'Security_'
'yer_'
'theres_'
'filing_'
'eng'
'Sour_'
'Ridiculous_'
'substantial_'
'Eddie_'
'vape_'
'gan'
'cloth_'
'Sau'
'wire_'
'almonds_'
'ak'
'updating_'
'sen'
'spotted_'
'Tavern_'
'lam'
'buddies_'
'scrap'
'Oysters_'
'attempting_'
'Dutch_'
'increased_'
'Line_'
'harsh_'
'cabinets_'
'trimmed_'
'saturday_'
'highway_'
'feelings_'
'ia'
'dishwasher_'
'dent_'
'    _'
'hes_'
'appropriately_'
'County_'
'hustle_'
'Damn_'
'42_'
'rb'
'mixing_'
'metro_'
'ben'
'tan'
'rti'
'ize_'
'Health_'
'Sta'
'ching_'
'ère_'
'my'
'fence_'
'pan'
'Sprouts_'
'pea_'
'financing_'
'artificial_'
'Carr'
'SF_'
'Sports_'
'computers_'
'fifteen_'
'ca'
'hol'
'ethnic_'
'lining_'
'scent_'
'THEM_'
'Kan'
'innovative_'
'cul'
'Preis_'
'towed_'
'Plumbing_'
'Oreo_'
'surf_'
'stroll_'
'international_'
'hats_'
'TE_'
'reads_'
'Merc'
'proceed_'
'lls_'
'int'
'education_'
'. :'
'ew_'
'Rich_'
'eg'
'cameras_'
'lineup_'
'Carlos_'
'confi'
'Res'
'OL'
'roommate_'
'immaculate_'
'decades_'
'^'
'Modern_'
'Jerry_'
'sein_'
'fillet_'
'Di'
'slept_'
'hospitable_'
'stri'
'peel_'
'okra_'
'diced_'
'Tan_'
'Mo'
'skewer_'
'ent'
'aquarium_'
'ui'
'surface_'
'indoors_'
' ...._'
'ically_'
'WRONG_'
'architecture_'
'feeding_'
'cancer_'
'Jeep_'
'Gua'
'plated_'
'fle'
'Pri'
'cones_'
'automatic_'
'carbs_'
'labeled_'
'granola_'
'Laura_'
'Charlie_'
'Close_'
'inde'
'Todd_'
'Juice_'
'impatient_'
'ncy_'
'long'
'ite_'
'dips_'
'critical_'
'Caribbean_'
'CI'
'greets_'
'Est'
'pasty_'
'hygienist_'
'performing_'
'foot'
'dou'
'buyer_'
'Fin'
'dro'
'Sales_'
'neon_'
'Tim'
'styled_'
'Ann_'
'- '
'device_'
'connoisseur_'
'Jean_'
'television_'
'cured_'
'wandered_'
'sse_'
'mini'
'KFC_'
'yay_'
'strictly_'
'go'
' !  _'
'wohl_'
'blo'
'Urban_'
'cleanest_'
'.. '
'nces_'
'CUSTOMER_'
'AAA_'
'tiles_'
'Pu'
'gain_'
'qua'
'snap_'
'drip_'
') \10;_'
'longest_'
'flowing_'
'nutella_'
'Lam'
'AT'
'Julie_'
'kiosk_'
'USE_'
'it'
'34_'
'arm'
'salami_'
'underwhelmed_'
'National_'
'Hi_'
'partying_'
'iceberg_'
'gathering_'
'dill_'
'gallery_'
'.\10;\10;-_'
'runner_'
'steakhouses_'
'Beans_'
'bra_'
'pitch_'
'eys_'
'22'
'.. \10;\10;_'
'pains_'
'wal'
'lychee_'
'win'
'FO'
'gay_'
'equivalent_'
'alo'
'CU'
'tch_'
'mad'
'Tina_'
'Sor'
'trend_'
'Roast_'
'tt_'
'pretend_'
'ST_'
'trap_'
'goals_'
'get'
'attorney_'
'tenant_'
'instance_'
'Chile_'
'sweetheart_'
'incorrectly_'
'adi'
'Mahi_'
'sites_'
'dam_'
'reflect_'
'coma_'
'ums_'
'tested_'
'playground_'
'interact_'
'CE'
'Lan'
'adjustment_'
'700_'
'float_'
'Zero_'
'Park'
'Head_'
'FL'
' .\10;_'
'sir_'
'ignoring_'
'Looked_'
'dietary_'
'Expensive_'
'thirty_'
'Pancakes_'
'Bun_'
'sees_'
'polished_'
'inner_'
'clo'
'tent_'
'ama'
'PI'
'vin_'
'nap_'
'abundance_'
'Run_'
'inattentive_'
'". \10;\10;_'
'method_'
'19'
'fig_'
'Dark_'
'stro'
'equipped_'
'Team_'
'sporting_'
'moms_'
'mi'
'ction_'
'Body_'
'Boba_'
'nit'
'Walgreens_'
'Pay'
'EE'
'Brooklyn_'
'Appetizers_'
'uf'
'stove_'
'connect_'
'Cox_'
'....\10;_'
'vent_'
'night'
'Taiwanese_'
'generously_'
'Gary_'
'CAR'
'bis_'
'accompanying_'
'stain_'
'ici'
'hh_'
'cigars_'
'Mer'
'congee_'
'sters_'
'personalized_'
'pit'
'reduction_'
'Tam'
'Florida_'
'wander_'
'sam'
'birthdays_'
'motel_'
'ih'
'hotter_'
'moon_'
'blanket_'
'uri'
'ica'
'celebrity_'
'Caramel_'
'Sounds_'
'alas_'
'collect_'
')..._'
'ng'
'Emp'
'surroundings_'
'rea'
'croutons_'
'Ag'
'rne'
'chee'
'ech'
'compassion_'
'Washington_'
'ers'
'counters_'
'Sehr_'
'..'
'nted_'
'nacho_'
'GU'
'Creme_'
'Cesar_'
'ust'
'joy'
'ders_'
'32'
'washes_'
'tzatziki_'
'spas_'
'hl'
'Dry_'
'criticism_'
'ace_'
'rim_'
'exploring_'
'Bravo_'
'ved_'
'pha'
'bound_'
'sidewalk_'
'dudes_'
'NI'
'Anything_'
'kal'
'deli'
'Aaron_'
'Tree_'
'rant_'
'mor'
'forgetting_'
'scare_'
'gates_'
'oils_'
'dear_'
'ative_'
'realizing_'
'ood_'
'nom'
'knee_'
'arts_'
'Bu'
'terrace_'
'registration_'
'apologizing_'
'Tisch_'
'AVOID_'
'struggling_'
'lenses_'
'costumer_'
'Hy'
'struggle_'
'bio'
'Dor'
'Chic'
'thirsty_'
'pipe_'
'Mama_'
'Del'
',\10;\10;_'
'dash_'
'Met_'
'Butter'
'ä'
'throat_'
'tapioca_'
'paintings_'
'Fire_'
'FE'
'DEFINITELY_'
'so'
'omelets_'
'cal'
'alt'
'." \10;\10;_'
'function_'
'US'
'elements_'
'STE'
'FINALLY_'
'fryer_'
'Shar'
'Heaven_'
'systems_'
'recovery_'
'Cam'
'soft'
'caffeine_'
'apt_'
'Russian_'
'meticulous_'
'fat'
'Shops_'
'sou'
'len_'
'ads_'
'Sto'
'trans'
'heating_'
'solve_'
'ren'
'ect_'
'Larry_'
'Boys_'
'outing_'
'Sand'
'sis_'
'Ton'
'. \10;-_'
'waterfall_'
'uti'
'showroom_'
'micro_'
'appointed_'
'satay_'
'proceeds_'
'é'
'per'
'faith_'
'ache_'
'ris'
'?  \10;\10;_'
'whites_'
'clearance_'
'edi'
'cancellation_'
'buttermilk_'
'utterly_'
'slab_'
'petit_'
'billed_'
'see'
'dan'
'Cherry_'
'frequented_'
'ero'
'Lar'
'Deep_'
'elo'
'Rather_'
'Tor'
'River_'
'noticeable_'
'layered_'
'ggi'
'Un_'
'policies_'
'image_'
'Welcome_'
'har'
'Stra'
'ab_'
'overlook_'
'shabby_'
'fresher_'
'Disappointing_'
'25'
'tin_'
'spirits_'
'ga'
'Dun'
'pages_'
'YE'
'Gen'
'stall_'
'bitch_'
'Medium_'
'tor_'
'dri'
'Tea'
'!\10;'
'Hand'
'featuring_'
'Bouchon_'
'nin'
'gt_'
'Cooked_'
'tipping_'
'ala_'
'slider_'
'mystery_'
'versions_'
'pen'
'Tommy_'
'New'
'cer'
'dea'
'calming_'
'Honest_'
'capable_'
'Sunset_'
'Mario_'
'Wi'
'Union_'
'Dy'
'Valet_'
')... _'
'ues_'
'uts_'
'ten'
'ros'
'regard_'
'ster'
'overcharged_'
'eas'
'converted_'
'saucy_'
'CVS_'
'wedges_'
'gon'
'Vegetarian_'
'hush_'
'ff'
'speaker_'
'fin_'
'suffer_'
'del_'
'Sum_'
'horror_'
'Latte_'
'21st_'
'baking_'
'DMV_'
'cabana_'
'RV_'
'fritters_'
'safely_'
'vom_'
'vol'
'redi'
'cereal_'
'Sangria_'
'hatten_'
'dishonest_'
'pers'
'pur'
'Jerk_'
'label_'
'healing_'
'Hol'
'sm_'
'Outside_'
'intention_'
'bas'
'taps_'
'ct'
'magazines_'
'developed_'
'Kin'
'chan'
'mari'
'lasts_'
'inconvenient_'
'Rec'
'Ethiopian_'
'tidy_'
'Yuck_'
'Compared_'
'Foie_'
'relaxation_'
'pap'
'ford_'
'cro'
'dal'
'Wor'
'Cal'
'hopping_'
'opinions_'
'nie'
'dull_'
'Dip_'
'ir'
'ier'
'Linda_'
'British_'
'transportation_'
'CHE'
'glowing_'
'Cat'
'tags_'
'paradise_'
'cough_'
'Jesus_'
'dle_'
'matching_'
'butternut_'
'Portuguese_'
'hyped_'
'blind_'
'RES'
'BOMB_'
'Americanized_'
'fel'
'wan'
'Ob'
'Ba'
'rot'
'percent_'
'ggy_'
'bees_'
'ant'
'agents_'
'steel_'
'papaya_'
'masseuse_'
'guessed_'
'Dec'
'sheer_'
'noo'
'mp'
'limp_'
'hallways_'
'aj'
'Pur'
'Jenny_'
'occurred_'
'Typical_'
'NT'
'Montréal_'
'Combo_'
'Chuck_'
' :-)_'
'eat'
'bump_'
'Dunkin_'
'stiff_'
'spicier_'
'radish_'
'iv'
'Mandarin_'
'disc'
'bles_'
'Put_'
'hometown_'
'climb_'
'Papa_'
'mere_'
'restrictions_'
'hs_'
'bru'
'Jamie_'
'met'
'Latin_'
'Su'
'God'
'sting_'
'Belgian_'
'Ah_'
'fluid_'
'cks_'
'struck_'
'counting_'
'As'
'sour'
'fixtures_'
'candied_'
'scotch_'
'Um'
'Bi'
'preferences_'
'underground_'
'rabbit_'
'magnificent_'
'lite_'
'Down_'
'discussing_'
'reputable_'
'lle'
'SL'
'nailed_'
'friendlier_'
'compelled_'
'non'
'prints_'
'ata'
'og'
'ano'
'Book_'
'ça_'
'historic_'
'Bone_'
'muss_'
'Boulder_'
'unimpressed_'
'hates_'
'birth_'
'Martini_'
'channel_'
'Scarborough_'
'Mostly_'
'intimidating_'
'encouraging_'
'distracted_'
'usly_'
'nda'
'hamburgers_'
'show'
'Sur'
'Persian_'
'muscle_'
'Instagram_'
'la'
'tails_'
'official_'
'minded_'
'alfredo_'
'6th_'
'pinch_'
'operate_'
'desperately_'
'achieve_'
'pla'
'pomegranate_'
'ren_'
'ral_'
'lim'
'BL'
'35'
'els_'
'effects_'
'mic_'
'arena_'
'Gras_'
'sealed_'
'mach'
'Up'
'misleading_'
'appreciation_'
'VEGAS_'
'EXTREMELY_'
', \10;_'
'soothing_'
'London_'
'plethora_'
'Peanut_'
'unt'
'timers_'
'Ed_'
'walnuts_'
'lt'
'ye_'
'beard_'
'Signature_'
'Teriyaki_'
'Ambience_'
'pping_'
'creams_'
'bleu_'
'ran'
'Green'
'Bass_'
'gen'
'Salads_'
'turnover_'
'leider_'
'promising_'
'partially_'
'dissapointed_'
'cad'
'ures_'
'hn'
'gro'
'ugh_'
'ans'
'landscaping_'
'Bea'
'math_'
'tti_'
'Mel'
'Hoo'
'ganz_'
'Wagyu_'
'Kyle_'
'habit_'
'gew'
'agi'
'Sy'
'Manhattan_'
'Jen_'
'Chu'
'quieter_'
'Extra_'
'swa'
'companions_'
'stand'
'edly_'
'complement_'
'Tat'
'SUV_'
'EX'
'anti_'
'Anyhow_'
'consumed_'
'moderate_'
'bachelor_'
'Pea'
'Home'
'grapefruit_'
'LU'
'FRESH_'
'oasis_'
'Bella_'
'Pres'
'easiest_'
'difficulty_'
'mus'
'Believe_'
'zar'
'water'
'stepping_'
'pitchers_'
'ively_'
'farmers_'
'Wal'
': '
'Turkish_'
'xo'
'kabobs_'
'Cas'
'ture_'
'ati'
'Masala_'
'SP'
'switching_'
'remotely_'
'nte_'
'shu'
'moni'
'mental_'
'surgeon_'
'cafes_'
'cigarettes_'
'sp_'
'marshmallow_'
'gle'
'Spot_'
'bibimbap_'
'2009_'
'wilted_'
'kin'
'Mid'
'GE_'
'äh'
'escorted_'
'Dri'
'reward_'
'Week_'
':) _'
'rotten_'
'SH_'
'Len'
'van'
'obe'
'tubs_'
'toss_'
'accompany_'
'Low_'
'valuable_'
'appalled_'
'Aus'
'  - _'
'yolk_'
'redo_'
'hectic_'
'DR_'
'Cur'
'Zo'
'min'
'boxed_'
'awe_'
'Peoria_'
'imported_'
'studying_'
'styling_'
'spinning_'
'ela'
'Scottish_'
'atrocious_'
'release_'
'gallo_'
'een_'
'Sen'
'pri'
'post'
'antique_'
'abi'
'Thailand_'
'On'
'Bank_'
'Verizon_'
'rar'
'eva'
'Bun'
'  \10;\10;_'
'tandoori_'
'symptoms_'
'oy'
'gy'
'Easter_'
'rf'
'honored_'
'bra'
'avoiding_'
'atop_'
'flair_'
'60'
'vel'
'lit'
'faves_'
'blinds_'
'Margaritas_'
'formed_'
'Sal'
'shes_'
'compete_'
':\10;'
'zzy_'
'fru'
'Joey_'
'coats_'
'350_'
'sex_'
'nephew_'
'Bei'
'pillow_'
'demanded_'
'tours_'
'pil'
'after'
'seasonings_'
'Soft_'
'Republic_'
'mask_'
'fin'
'Cup_'
'hm'
'TOO_'
'ala'
'NV_'
'Ha_'
'ita'
'fs_'
'chaos_'
'bedside_'
'Girl_'
'sol'
'beloved_'
'angel_'
'Mini_'
'circumstances_'
'hairs_'
'Tru'
'ight_'
'Katie_'
'pollo_'
'blueberries_'
'Ribeye_'
'Europe_'
'nst'
'steaming_'
'ese_'
'def'
'PP'
'Enterprise_'
'moderately_'
'Liberty_'
'Am'
'ät'
'marble_'
'fab_'
'Ladies_'
'Elite_'
'chest_'
'ay'
'gar_'
'???  _'
'tastier_'
'handing_'
'hing_'
'yo'
'ot'
'guards_'
'Kal'
'") _'
'bee_'
'NEW_'
'Fall_'
'Waiting_'
'Men_'
'59_'
'characters_'
'suis_'
'oh'
'Spent_'
'Melt_'
'valued_'
'promises_'
'diss'
'ld_'
'esque_'
'sufficient_'
'hem'
'Guinness_'
'AB'
'gosh_'
'evident_'
'cane_'
'Reasonably_'
'auf'
'science_'
'produced_'
'Lola_'
'err'
'rocked_'
'chase_'
'hei'
'cie'
'begins_'
'powdered_'
'musical_'
'ava'
'approx_'
'...) _'
'sipping_'
'OU'
'char'
'sparse_'
'individually_'
'bubbles_'
'Scallops_'
'Pig_'
'aci'
'jo'
'esp_'
'blamed_'
'Tempura_'
'whi'
'ms'
'mas_'
'schöne'
'pints_'
'oth'
'invoice_'
'States_'
'neglected_'
'Tropicana_'
'bot'
'mp_'
'Swi'
'un'
'magazine_'
'crammed_'
'consumer_'
'Fire'
'rs'
'Shan'
'logo_'
'Victoria_'
'EC'
'play'
'seed_'
'flavoring_'
'accomodating_'
'Uptown_'
' :(_'
'trivia_'
'outer_'
'intrigued_'
'courtyard_'
'cook'
'am'
'Naan_'
'Mint_'
'44_'
'descriptions_'
'tely_'
'circus_'
'mme'
'discussion_'
'ays_'
'Tokyo_'
'Pass'
'rei'
'teenagers_'
'outfit_'
'THEN_'
'survive_'
'Nail_'
'* '
'she'
'luke_'
'cru'
'Visiting_'
'Brad_'
'exists_'
'cel'
'Tucson_'
'leasing_'
'Fla'
'inappropriate_'
'UPS_'
'Others_'
'ringing_'
'gray_'
'splash_'
'compares_'
'closely_'
'brothers_'
'cobbler_'
'Eli'
'Beatles_'
'tier_'
'Charleston_'
'mat_'
'creates_'
'ult'
'rede'
'understands_'
'hotdog_'
'Pop_'
'bustling_'
'\\/'
'tle_'
'poop_'
'LL_'
'scattered_'
'bib'
'FAR_'
'sunglasses_'
'passenger_'
'gy_'
'Excalibur_'
'som'
'gau'
'approval_'
'tool_'
'Spice_'
'Mein_'
'Cocktails_'
'Cantonese_'
'Hot'
'Christian_'
'souvlaki_'
'worthwhile_'
'pubs_'
'kra'
'century_'
'afterward_'
'mai_'
'... \10;_'
'ty'
'tee_'
'rp'
'nta'
'son'
'printing_'
'hub_'
'bizarre_'
'Dining_'
'swiss_'
'facts_'
'bathtub_'
'Harris_'
'Asia_'
'sive_'
'exhausted_'
'heart'
'explo'
'Value_'
'Hummus_'
'wagyu_'
'user_'
'rly_'
'attendants_'
'.    \10;\10;_'
'solved_'
'nies_'
'coloring_'
'Ash'
'sounding_'
'ria'
'relative_'
'Average_'
'roomy_'
'agency_'
'wa_'
'moo'
'lavender_'
'Lux_'
'skins_'
'Mai'
'Baja_'
'ser_'
'outs'
'relieved_'
'?  '
'mid'
'TRY_'
'!)  _'
'manners_'
'caution_'
'Nonetheless_'
'suited_'
'ssen_'
'DIS'
'unreal_'
'sui'
'Cannot_'
'ip'
'Pollo_'
'sandwhich_'
'oddly_'
'village_'
'refu'
'Meanwhile_'
'?!? _'
'dia'
'Jackson_'
'unbeatable_'
'gef'
'steady_'
'scream_'
'bonne_'
'~ _'
'foodies_'
'mats_'
'lei'
'gallon_'
'And'
'Ros'
'palette_'
'lem'
'glo'
'Met'
'overhead_'
'bing_'
'Bell'
'WHY_'
'Cost_'
'ski'
'commitment_'
'Bee'
'pong_'
'keine_'
'AS_'
'prescriptions_'
'alle'
'eni'
'churros_'
'Velvet_'
'Alo'
'understatement_'
'scratches_'
'ND'
'ured_'
'cle'
'calorie_'
'neg'
'memorabilia_'
'Dogs_'
', '_'
'associated_'
'LONG_'
'Flavor_'
'shaking_'
'performances_'
'Ou'
'!!! \10;_'
'sourced_'
'Sou'
'Yard_'
'zz_'
'spar'
'coo'
'advanced_'
'upgrades_'
'temporary_'
'ang'
'Megan_'
'!\10;\10;'
'sober_'
'economy_'
'***_'
'mate_'
'coach_'
'IHOP_'
'Penn_'
'til'
'relish_'
'loin_'
'hardware_'
'ak_'
'Ontario_'
'Heat'
'sigh_'
'shades_'
'Wrong_'
'WO'
'RIGHT_'
'woods_'
'provolone_'
'hen'
'caters_'
'Use_'
'Rep'
'spoons_'
'smashed_'
'shack_'
'gals_'
'fade_'
'Pineapple_'
'Needed_'
'bakeries_'
'Martin_'
'Emily_'
'Att'
'asap_'
'Kensington_'
'été_'
'determine_'
'tun'
'dai'
'chopsticks_'
'judging_'
'inspect_'
'Lauren_'
'tom_'
'breweries_'
'Sky'
'!"  _'
'yc'
'Anytime_'
'as'
'failure_'
'biryani_'
'lad'
'BY_'
'kit_'
'Bes'
'sinks_'
'ane_'
'IM'
'EA'
'For'
'ron_'
'olo'
'odor_'
'3am_'
'redeeming_'
'courts_'
'College_'
'Anna_'
'Affordable_'
'ula'
'pockets_'
'dimly_'
'breathtaking_'
'links_'
'gee'
'Roberto_'
'thinner_'
'schnitzel_'
'ico'
'Preise_'
'37_'
'sole_'
'bed'
'Miller_'
') & _'
'monster_'
'resulted_'
'comic_'
'mag'
'Church_'
'CP'
'CT'
'CHA'
'terri'
'physician_'
'dept_'
'Küche_'
'izing_'
'bubbly_'
' :( _'
'fest_'
'coa'
'Bianco_'
'tastebuds_'
'." '
'qualified_'
'eh'
'committed_'
'Thumbs_'
'Sitting_'
'Peruvian_'
'tanks_'
'Mom'
'crossed_'
'Pic'
'MIN'
'Las'
'DONT_'
'posters_'
'Gru'
'aim'
'Pil'
'Standard_'
'Juan_'
'sad'
'rudeness_'
'rain'
'loop_'
'con'
'jam'
'Holiday_'
'ron'
'Lor'
'anc'
'proc'
'functional_'
'Th'
'drying_'
'Repair_'
'texting_'
'servi'
'End'
'smog_'
'scalp_'
'mellow_'
'ker'
'whats_'
'Chick_'
'remake_'
'compensation_'
'Initially_'
'Chee'
'bursting_'
'Delish_'
' $$ _'
'ps'
'pampered_'
'cli'
'STA'
'Everybody_'
'Dia'
'fold_'
'dge'
'Crystal_'
'wind'
'hosted_'
'hab'
'&'
'rau'
'nder_'
'idiots_'
'ica_'
'Checked_'
'hil'
'freak_'
'tee'
'Seemed_'
'listing_'
'chemicals_'
'mountains_'
'enthusiasm_'
'reminder_'
'light'
'wee'
'val'
'tb'
'pairings_'
'eti'
'gum_'
'dumped_'
'. :) _'
'Lakewood_'
'Cab'
'ond'
'lor'
'alternatives_'
'caviar_'
'uc'
'strike_'
'payed_'
'redeem_'
'torta_'
'precious_'
'll'
'happiness_'
'Heard_'
'cin'
'Kr'
'gem'
'Bit'
'OFF_'
'work'
'ana'
'Nam'
'Et'
'tru'
'starbucks_'
'LT'
'HK_'
'mildly_'
'Suites_'
'Ein_'
'Ec'
'pizzeria_'
'miracle_'
'ens'
'caliber_'
'Pizzeria_'
'zip_'
'mayonnaise_'
'hubs_'
'thro'
'lists_'
'kicking_'
'ists_'
'Thats_'
'crabs_'
'Tan'
'Sub'
'Bacchanal_'
'macaron_'
'OW'
'Euro_'
'CHI'
'tang'
'ox_'
'let'
'tl'
'creation_'
'Grille_'
'veri'
'lk'
'Secret_'
'Fi_'
'inspected_'
'grumpy_'
'Suite_'
'Bartenders_'
'Aw'
').   _'
'oun'
'PT_'
'Door_'
'CR'
'supper_'
'flat'
'Tal'
'Hidden_'
'Hat'
'prec'
'contractors_'
'impa'
'dug_'
'complemented_'
'wie'
'foreign_'
'channels_'
'by'
'Dam_'
'yards_'
'trial_'
'omelettes_'
'kel'
'shank_'
'inventive_'
'Ale'
'vegans_'
'strict_'
'bait_'
'vinyl_'
'nearest_'
'pregnancy_'
'improvements_'
'Furthermore_'
'BEFORE_'
'ut'
'technically_'
'audio_'
'sincerely_'
'mm'
'supportive_'
'cre'
'Dra'
'DE_'
'ns'
'Pa'
'Mercedes_'
'ile_'
'chiropractor_'
'blank_'
'kers_'
'Northern_'
'wn'
'ace'
':\10;\10;- _'
'chutney_'
'accommodations_'
'ow'
'gna'
'flo'
'digress_'
'diagnose_'
'unpretentious_'
'quail_'
'lengthy_'
'han'
'ara_'
'80s_'
'rop'
'ave_'
'Wi_'
'mac'
'good'
'Ill_'
'tempting_'
'rep'
'esi'
'nti'
'rn_'
'mit'
'kommen_'
'eye'
'View_'
'Rob'
'spotty_'
'ny'
'celebrated_'
'OP'
'stin'
'parfait_'
'logy_'
'bleeding_'
'MONEY_'
'sty_'
'romaine_'
'compensate_'
'Mani'
'novelty_'
'indi'
'deviled_'
'Seeing_'
'Cut_'
'Brie_'
'ration_'
'epi'
'breadsticks_'
'Sit_'
'Disgusting_'
'xe'
'situations_'
'resturant_'
'lava_'
'Smoke_'
'Mil'
'sic'
'2008_'
'Kam'
'ore'
'baskets_'
'\u'
'uns'
'sliding_'
'relleno_'
'expertly_'
'Und_'
'OT'
'Eggplant_'
'ism_'
'bel'
'88_'
'aaa'
'Pete_'
'Gla'
'pee'
'tennis_'
'razor_'
'glorious_'
'cheat_'
'lang'
'Wednesdays_'
'faire_'
'suggesting_'
'ap'
'Unique_'
'goodbye_'
'ek'
'Warning_'
'Homemade_'
'mmmm_'
'documents_'
'itt'
'Tiramisu_'
'biggie_'
'altogether_'
'bir'
'FOR'
'definition_'
'Pick_'
'Bet'
'registers_'
'overdue_'
'Bir'
'pant'
'slo'
'gg'
'breathing_'
'res'
'THEIR_'
'you'
'comme_'
'OJ_'
'!!!!'
'hel'
'Ama'
'kalbi_'
'Bros_'
'shit'
'mas'
'App'
'!!) _'
'ys'
'panic_'
'errands_'
'bustle_'
'va'
'slu'
'scone_'
'killing_'
'weeknight_'
'tz'
'ats_'
'Ve'
'rub'
'pole_'
'was'
'dic'
'Bas'
'ular_'
'sleek_'
'valid_'
'communal_'
'Austin_'
'continually_'
'Ble'
'pac'
'cau'
'Play'
'BB'
'handles_'
'garlicky_'
'chimichanga_'
'advisor_'
'Stick_'
'wrapping_'
'lifestyle_'
'Veal_'
'quest_'
'melting_'
'colo'
'bid_'
'Margherita_'
'ranges_'
'ques_'
'onal_'
'mandatory_'
'shi_'
'flavoured_'
'blankets_'
'PU'
'Cave_'
'premises_'
'ology_'
'Said_'
'Public_'
'Danielle_'
'ree_'
'ok'
'lemongrass_'
'abo'
'nad'
'efforts_'
'Jamaican_'
'illegal_'
'ian'
'gerne_'
'api'
'???? _'
'models_'
'clearing_'
'bility_'
'COME_'
'land'
'gob'
'alle_'
'AWFUL_'
'het'
'rudest_'
'instruction_'
'dul'
'dragged_'
'Ali'
'ront_'
'master'
'washrooms_'
'contains_'
'Stuffed_'
'FFE'
'racist_'
'mil'
'Ball'
'reps_'
'twi'
'mush_'
'merely_'
'faux_'
'RECOMMEND_'
'Chang_'
'  "_'
'misters_'
'forks_'
'Ris'
'hipsters_'
'ple'
'Dundas_'
'sang_'
'Christ'
'COM'
'05_'
'tied_'
'sai'
'bison_'
'May'
'Find_'
'investment_'
'Ps_'
'According_'
'zo'
'chaotic_'
'tor'
'competitor_'
'blessed_'
'jan'
'eli'
'Ross_'
'kebab_'
'institution_'
'guidance_'
'doc_'
'gall'
'alls_'
'role_'
'Yelper_'
'Mignon_'
'Vor'
'Gal'
'17'
'ße_'
'rentals_'
'ext'
'ayce_'
'counted_'
'Hertz_'
'Banh_'
'RS_'
'Pat'
'Lexus_'
'olds_'
'installing_'
'Vdara_'
'oll'
'Deb'
'wtf_'
'Van_'
'Pay_'
'ich'
'fte'
'fax_'
'Den'
'rig'
'ku'
'ghost_'
'ime_'
'bouquet_'
'potentially_'
'chatty_'
'Randy_'
'empfehlen_'
'ane'
'13'
'"..._'
'soooooo_'
'studios_'
'mot'
'arr'
'Whoever_'
'Somehow_'
'rec'
'ld'
'!!!!!!_'
'customized_'
'bil'
'Guacamole_'
'linguine_'
'pinball_'
'nt'
'!!)'
'lid_'
'hin_'
'ks'
'hurts_'
'galore_'
'Ly'
'Gluten_'
' ~_'
'costing_'
'com'
'wurden_'
'reaching_'
'bes'
'summary_'
'groomers_'
'castle_'
'Tables_'
' --- _'
'slimy_'
'negatives_'
'beg'
'?   _'
'smelly_'
'fund'
'Show'
'eur_'
'Triple_'
'Outback_'
'suffering_'
'standout_'
'habanero_'
'floral_'
'weed_'
'one'
'Eagle_'
'sal'
'blackjack_'
'Jungle_'
'ton'
'pr'
'Ken'
'Katsu_'
'eta'
'ama_'
'lb'
'kicker_'
'continuing_'
'Around_'
'black'
'bea'
'remo'
'pal'
'crawl_'
'Bon_'
'od'
'mic'
'condensed_'
'artistic_'
'ante_'
'rab'
'pate_'
'homework_'
'Nan'
'NN'
'queue_'
'ob_'
'Trans'
'Susan_'
'eness_'
'det'
'Spaghetti_'
'scottsdale_'
'creep'
'panel_'
'glob'
'Yup_'
'pli'
'meantime_'
'Pricey_'
'Pastor_'
'thu'
'ape'
'Pra'
'Oyster_'
';  _'
'marg'
'estimates_'
'substance_'
'ome_'
'Port'
'yon'
'detect'
'Karen_'
'** _'
'bamboo_'
'Trying_'
'Gre'
' # _'
'tto_'
'tos_'
'lers_'
'lai'
'TJ_'
'Rot'
'vert'
'components_'
'Christina_'
'palm_'
'Chase_'
'outta_'
'holl'
'gly_'
'African_'
'sweating_'
'goo'
'Smo'
'Ron'
'Dam'
'ün'
'Hay'
'zel'
'unsatisfied_'
'Dea'
'oc'
'fying_'
'Doug_'
'180_'
'gang_'
'bit'
'är'
'designated_'
'Wal_'
'Spe'
'26'
'filler_'
'Chow_'
'irre'
'ib'
'wishing_'
'dunk'
'Vo'
'temps_'
'Ari'
' $$'
'melon_'
'sing'
'ripe_'
'belong_'
'Therefore_'
'LED_'
'CC_'
'sriracha_'
'mode_'
'groom_'
'esp'
'WI'
'wei'
'visual_'
'lä'
'breaker_'
'hottest_'
'escargot_'
'Sam'
'claiming_'
'Tom'
'Rac'
'BC_'
'Patio_'
'nation_'
'UNLV_'
'BLA'
'snobby_'
'EV'
'@_'
'walk'
'tinted_'
'ind_'
'darker_'
'bent_'
'Mist'
'Immediately_'
'CS'
'Ts'
'rum'
'jo_'
'ined_'
'gie_'
'100'
'boyfriends_'
'bull'
'stalls_'
'quer'
'Clo'
'Benny_'
'?!\10;\10;_'
'unde'
'soba_'
'packaging_'
'hosting_'
'warmth_'
'figuring_'
'buc'
'Comes_'
'BR'
'~'
'redone_'
'Audi_'
'satisfactory_'
'reb'
'gur'
'gt'
'eto'
'bumped_'
'Mart'
'#'
'values_'
'Andrea_'
'. \10; \10;_'
'Mayo_'
'Glass_'
'rac'
'eu'
'ese'
'Rod'
'MP'
'uno'
'travels_'
'supreme_'
'lou'
'define'
' "'
'nf'
'ield_'
'dies_'
'uncle_'
'nds_'
'university_'
'timeshare_'
'markets_'
'dale_'
'Heck_'
'."'
'rotisserie_'
'PB_'
'tostada_'
'realtor_'
'MANY_'
'disagree_'
'KED_'
'130_'
'Pac'
'chewing_'
'Jon_'
'eless_'
'Em'
'Can'
'Auch_'
'tle'
'hurting_'
'Plat'
'Nevertheless_'
'Lotus_'
'Lac'
'Arcadia_'
'potstickers_'
'lis'
'insulting_'
'aro'
'Brothers_'
'7am_'
'79_'
'ott'
'este'
'ci_'
'stream_'
'peeps_'
'accom'
'Roa'
'*\10;\10;_'
'getaway_'
'condiment_'
'Clinic_'
'geh'
'flagged_'
'dol'
'Live'
'Carpet_'
'Cant_'
'spam_'
'Sel'
'Leg'
'rou'
'nick'
'chalk_'
'buttered_'
'wins_'
'alongside_'
'visually_'
'Cuisine_'
'Cobb_'
'Ami'
'minds_'
'managing_'
'Weird_'
'urine_'
'ea_'
'cooling_'
'communicated_'
'em'
'dos_'
'Dr'
'toilets_'
'gin'
'absurd_'
'Pla'
'thier_'
'photography_'
'nde'
'jars_'
'HOWEVER_'
'  $_'
'Tender_'
'Eating_'
'reverse_'
'operating_'
'instructed_'
'established_'
'sca'
'nou'
'folk_'
'dressings_'
'Healthy_'
'Aloha_'
'. - _'
'drew_'
'unf'
'outfits_'
'conce'
'oldest_'
'prop'
'driveway_'
'avid_'
'á'
'suitable_'
'fajita_'
'any'
'Sil'
'tz_'
'spo'
'region_'
'mont_'
'ins'
'electronics_'
'!! '
'pecans_'
'Sides_'
'devi'
'spec'
'Father_'
'ANYTHING_'
'continuously_'
'Jer'
'with'
'rese'
'Pot'
'Mrs_'
'pho'
'ibe'
'bl'
'Star'
'Under_'
'SHO'
'Nancy_'
'accustomed_'
'ada'
'ach'
'Lock'
'='
'pot'
'episode_'
'borderline_'
'best'
'Sin'
'peeling_'
'mist'
'dit'
'costume_'
'are'
'souvenir_'
'commission_'
'choix_'
'RT'
'nl'
'miss'
'gran'
'80'
'215_'
'border_'
'vet'
'pours_'
'nat'
'glue_'
'fitted_'
'sher'
'rom'
'Cakes_'
'digging_'
'%_'
'sprayed_'
'ro'
'Air'
'san'
'interacted_'
'horrific_'
'fennel_'
'vit'
'noticing_'
'arti'
'Hostess_'
'avi'
'dim'
'concerts_'
'Thursdays_'
'ath'
'Charles_'
'; '
'21'
'rg'
'ngly_'
'hiding_'
'breathe_'
'sha_'
'asa'
'Ram'
'GPS_'
'Arc'
'Sa'
'Lets_'
'Tyler_'
'ski_'
'capers_'
' ("_'
'ßen_'
'pf'
'Terry_'
'Master_'
'dj_'
'blocked_'
'Plate_'
'Or'
'IG'
'Steven_'
'Richmond_'
'Waste_'
'.  \10;\10;'
'follows_'
'ern'
'Kom'
'vat'
'ille'
'Foo'
')\10;-_'
'jaw_'
'deca'
'Cindy_'
'scratched_'
'geb'
'dresser_'
'corr'
'collard_'
'career_'
'ION_'
'Chop_'
'manufacturer_'
'hashbrowns_'
'drama_'
'tastiest_'
'steering_'
'resi'
'intend_'
'protect_'
'Qui'
'Boo'
' !\10;_'
'yuck_'
'rubbed_'
'digital_'
'OO'
'Typically_'
'ira'
'height_'
'busiest_'
'Hen'
'FIN'
'accounts_'
'RR'
'Jordan_'
'Colorado_'
'Appetizer_'
'eo_'
'Oscar_'
'Mad_'
'KING_'
'ria_'
'farther_'
'sage_'
'Springs_'
'Safeway_'
'。_'
'teenage_'
'element_'
'coin_'
'FU'
':\10;\10;'
'singer_'
'sauerkraut_'
'dye_'
'trop_'
'mugs_'
'Word_'
'Pinot_'
'snow'
'mal'
'kis'
'acc'
'Uncle_'
'Shawn_'
'elevated_'
'threatened_'
'folded_'
'span'
'pred'
'Barrel_'
'opa'
'maze_'
'blu'
'and'
'ali'
'struggled_'
'sno'
'break'
'Under'
'Jones_'
'HE_'
'wowed_'
'straightforward_'
'sanitary_'
'revisit_'
'precise_'
'pep'
'dumb'
'YUMMY_'
'IT'
'crime_'
'Chelsea_'
'side'
'ito_'
'gr'
'consult_'
'Wall'
'Season'
'EVERYONE_'
'receipts_'
'ft'
'Famous_'
'eno'
'Memorial_'
'food'
'dire_'
'smoker_'
'SW_'
'ICE_'
'Qualität_'
'125_'
'Tapas_'
'Jasmine_'
'key'
'domestic_'
'decline_'
'chemical_'
'Vol'
'Photo'
'IA'
'Van'
'tif'
'league_'
'acrylics_'
'Com'
'mons'
'malls_'
'Car'
'efficiency_'
'MAR'
'yumm'
'excel'
'watches_'
'Ruth_'
'wl_'
'pel'
'fet'
'door'
'walkway_'
'nickel_'
'misc'
'cock'
'Rocky_'
'Ramsey_'
'remodeling_'
'acai_'
'programs_'
'eld_'
'DS_'
'Bear_'
'Tikka_'
'Noo'
'freeze_'
'believed_'
'\10;"_'
'bab'
'Hoover_'
'nett_'
'mn'
'hom'
'cur'
'Jesse_'
'Cookie_'
'Chil'
'not'
'cried_'
'sse'
'ball'
'Sake_'
'pp_'
'drives_'
'Sim'
'Plan_'
'"\10;_'
'ional_'
'Tin'
'Marc_'
'judgement_'
'Miami_'
'BLE_'
'Nat'
'Henry_'
'wu'
'sommelier_'
'pped_'
'Fill'
'installer_'
'Btw_'
'1am_'
'apo'
'Throughout_'
'CT_'
'pups_'
'plats_'
'cashew_'
'appreciative_'
'matches_'
'heaters_'
'graduation_'
'dusty_'
'charity_'
'rat'
'Ten_'
'THREE_'
'Spi'
'"... _'
'voll_'
'ups'
'recon'
'England_'
'reccomend_'
'modest_'
'fraction_'
'clubbing_'
'attractions_'
'Pacific_'
'Gold'
'Brittany_'
'kr'
'cow'
'SHA'
'toronto_'
','
'durch_'
'quil'
'holder_'
'Hand_'
'wed_'
'ventilation_'
'ick_'
'cit'
'COMPANY_'
'ika'
'cos_'
'Rest'
'Mas'
'????'
'. . _'
'yn_'
'Luke_'
'cutest_'
'amo'
'Soooo_'
'Drove_'
'landscape_'
'Espresso_'
'Camp'
'zt_'
'Bal'
'contain_'
'Ak'
'...)'
'wisdom_'
'roi'
'ting'
'salt'
'lawyer_'
'id'
'essential_'
'She'
'KNOW_'
'Casa_'
'plugs_'
'Kor'
'doggie_'
'approachable_'
'Pass_'
'Magic_'
'pay'
'ents_'
'Hooters_'
'tou'
'specializes_'
'resorts_'
'depressing_'
'transition_'
'Prior_'
'Ky'
'HEA'
'Earth_'
'kobe_'
'cho_'
'Don'
'thin'
'pet'
'horrid_'
'gardens_'
'consume_'
'Mont'
'pt_'
'Tes'
'Bally_'
'propos'
'hungover_'
'sted_'
'pond_'
'graciously_'
'ure'
'resolution_'
'kiddos_'
'gal'
'diagnostic_'
'assistants_'
'Son'
'lick_'
'gli'
'WH'
'VW_'
'Marie_'
'roaches_'
'age'
'stru'
'director_'
'assisting_'
'Out'
'Mai_'
'Con'
'sw'
'perks_'
'dating_'
'WOR'
'69_'
'gesch'
'dump'
'destroyed_'
'chit_'
'cali'
'Jun'
'Dollar_'
'nite_'
'Presentation_'
'Bomb_'
'variations_'
'cation_'
'Bin'
'Ass'
'"....'
'squa'
'planes_'
'ice'
'cent'
'Smart_'
'ket'
'IC_'
'CON'
'bullshit_'
'Swa'
'!. _'
'lasting_'
'drafts_'
'52_'
'ura'
'kh'
'rowdy_'
'mani'
'manages_'
'malt_'
'cen'
'Zin'
'NC'
'ua_'
'tar_'
'gas'
'clever_'
'Mt_'
'Jackie_'
'vy_'
'oned_'
'ish'
'LIKE_'
'Goat_'
'schön_'
'rust'
'pun_'
'nar'
'kom'
'high'
'Inter'
'EVEN_'
'!) '
'lifting_'
'detailing_'
'cultural_'
'Eri'
'''
'uh_'
'patronize_'
'mol'
'jasmine_'
'Keith_'
'ET'
'sneak_'
'\10;\10;*'
'Rei'
'Fri_'
'technical_'
'foil_'
'brushed_'
'Boy'
'éc'
'stranger_'
'snag_'
'minced_'
'delays_'
'backwards_'
'PC'
'10th_'
'mount_'
'Owners_'
'Jan_'
'sweetened_'
'inc'
'impressions_'
'dreaming_'
'attire_'
'af'
'unreasonable_'
'geni'
'fü'
'45pm_'
'workmanship_'
'Sar'
'Frozen_'
'tactics_'
'rds_'
'huh_'
'Firstly_'
'JA'
'servicing_'
'Castle_'
'ausge'
'acrobatics_'
'Nobu_'
'suffered_'
'Tang'
'?" '
'.) \10;\10;_'
'' '
'inexperienced_'
'cowboy_'
'check'
'cet'
'Maple_'
'Joel_'
'pale_'
'eau_'
'. ( _'
'Bang_'
'posts_'
'ert'
'candies_'
'You'
'Sai'
'Carl_'
'FULL_'
'Dep'
'30th_'
'Mixed_'
'HU'
'KE_'
'Brun'
'fettuccine_'
'barrier_'
'airports_'
'être_'
'ocean_'
'mind'
'cheek_'
'Kas'
'Cli'
'ura_'
'seal_'
'ende'
'tang_'
'Inc'
'Festival_'
'care'
'altered_'
'patch_'
'disease_'
'tering_'
'specialties_'
'Phil_'
'specialize_'
'ordeal_'
'Pepsi_'
'Bathrooms_'
'51_'
'une'
'promoter_'
'Absolute_'
'liar_'
'hose_'
'fifth_'
'fect'
'Nathan_'
'rte'
'Shell'
'Convenient_'
'.  _'
'preface_'
'knocking_'
'collections_'
'Top'
'Job_'
'overflowing_'
'Pol'
'Hai'
'mistaken_'
'hoagie_'
'2x_'
'ud'
'bread'
'Young_'
'DD_'
'Chorizo_'
'tha'
'temper'
'subject_'
'ler'
'ignorant_'
'wer'
'pine_'
'Tso_'
'Mol'
'promo_'
'cil'
'yed_'
'ra'
'nostalgic_'
'il'
'apprehensive_'
'ament'
'Mediocre_'
'sur'
'Kra'
'!).\10;\10;_'
'jun'
'entertain_'
'! \10;\10;'
'stumble_'
'rin'
'reluctant_'
'pipes_'
'Conn'
'ght'
'Twice_'
'Lag'
'fen_'
'connecting_'
'fish'
'buttons_'
'bow_'
'warming_'
'arb'
'IP'
' !\10;\10;_'
'day'
'offensive_'
'invest_'
'Oakland_'
'Loo'
'uniform_'
'mak'
'ENT'
'exercises_'
'endo'
'disp'
'curtain_'
'Lau'
'Bou'
'unse'
'Problem_'
'! $_'
'tres_'
'hike'
'Kathy_'
'unhealthy_'
'oon_'
'kee_'
'touristy_'
'sprinkles_'
'gui'
'champ'
'*****'
'elle'
'Silver'
'Jake_'
'mon'
'beg_'
'Bli'
'perk_'
'outgoing_'
'Lei'
'Americano_'
'im'
'ede'
'bene'
'Past'
'pic'
'bud_'
'Kara'
'Part_'
'Para'
'uff'
'lled_'
'ag'
'styrofoam_'
'real'
'portobello_'
'hills_'
'Houston_'
'quel'
'fini'
'Friend_'
'cell'
'transported_'
'Miracle_'
' - '
'yi'
'piss_'
'actions_'
'Schl'
'Lou'
'slush_'
'dock_'
'HD_'
'Bac'
'Angela_'
'Ala'
'plu'
'ake'
'Certainly_'
'Almond_'
'combine_'
'brewing_'
'beim_'
'Harry_'
'whilst_'
'retired_'
'drugs_'
'Generally_'
'89_'
'cutlery_'
'TED_'
'Shane_'
'Rou'
'craft'
'cob_'
'chap'
'deter_'
'Seasons_'
'tran'
'Auswahl_'
'aforementioned_'
'Wind'
'tir'
'poo'
'persons_'
''.  _'
'valve_'
'nh'
'teen_'
'AJ_'
'!!! '
'thrift_'
'positives_'
'opportunities_'
'limits_'
'interrupted_'
'strings_'
'pee_'
'passengers_'
'observed_'
'departure_'
'appliance_'
'Sno'
'Billy_'
'ora'
'identify_'
'= _'
'laughs_'
'ile'
'gratin_'
'cordial_'
'aaaa'
'indication_'
'imi'
'exclusive_'
'MT'
'BOO'
'kins_'
'Land'
'straws_'
'knees_'
'Tell_'
'quart'
'ient_'
'cosy_'
'Ham_'
'Cel'
'nut'
'Scar'
'gers_'
'Deli'
'...\10;\10;'
'ffle'
'Tracy_'
'Soon_'
'intrusive_'
'AH'
'ssion_'
'lox_'
'expansive_'
'cousins_'
'ari'
'sens'
'gust'
'Sicilian_'
'RY_'
'phi'
'describing_'
'Travel'
'FIRST_'
'Bathroom_'
'youre_'
'rk'
'fixings_'
'asia'
'MOST_'
'Harrah_'
')\10;\10;'
'zer_'
'residential_'
'pou'
'ph'
'opener_'
'ome'
'iche'
'doll'
'Pai'
'burst_'
'barbershop_'
'chie'
'fluke_'
'alert_'
'Fro'
'Biltmore_'
'lan_'
'Wil'
'Port_'
'stealing_'
'froyo_'
'aga'
'ndi'
'ili'
'et'
'admittedly_'
'Tech_'
'Colo'
'ners_'
'ées_'
'swanky_'
'iss'
'frei'
'db'
'abundant_'
'Bag'
'pop'
'geo'
'ene_'
'shrugged_'
'opi'
'jang'
'doch_'
'Consistently_'
'survey_'
'medi'
'Viva_'
'Choice_'
'smokers_'
'cabinet_'
'Int'
'ruining_'
'las'
'erie_'
'Pour_'
'Lawrence_'
'Beauty_'
'rail'
'doo'
'stout_'
'gou'
'Roy_'
'MEN'
'ule'
'concession_'
'bond'
'OVER_'
'tournament_'
'rotate_'
'gute_'
'passable_'
'partake_'
'mores_'
'Wan'
'Slice'
'Lokal_'
'unknown_'
'Blueberry_'
'mala'
'iti'
'explosion_'
'excess_'
'eful_'
'Sti'
'Post'
'Patty_'
'Forum_'
'schnell_'
'favs_'
'diff'
'baba_'
'Tab'
'Barb'
'log_'
'hus'
'dosa_'
'See'
'Kia_'
'vice_'
'mechanical_'
'cab'
'Ent'
'zon'
'prescribed_'
'gown_'
'eyelash_'
'artichokes_'
'Imperial_'
'identical_'
'dece'
'burg_'
'Pas'
'Aber_'
'sch'
'pren'
'mouths_'
'bust_'
'pti'
'atleast_'
' $'
'wait'
'tim'
'gue_'
'crème_'
'PLUS_'
'unders'
'licking_'
'dent'
'Sooo_'
'SS'
'.     _'
'row'
'nichts_'
'net'
'frisch_'
'LLE'
'uit'
'tent'
'head'
'camper_'
'cage_'
'Ph'
'storefront_'
'prof'
'fen'
'Worse_'
'Gl'
'overt'
'Kno'
'yb'
'settings_'
' ~ _'
'uar'
'Medi'
'tis_'
'loading_'
'hairdresser_'
'($_'
'barre'
'Jar'
'vic'
'Holly_'
'CAR_'
'padd'
'ling'
'contra'
'bok_'
'Rose'
'Mag'
'Gourmet_'
'top'
'prom'
'researched_'
'TR'
'Brussel_'
'3x_'
'29'
'Verde_'
'grapes_'
'ator_'
'Harbor_'
'richness_'
'Joseph_'
'hair'
'films_'
'data_'
'swap_'
'vale'
'rend'
'jol'
'hotdogs_'
'AG'
'bells_'
'neighboring_'
'household_'
'RU'
'Hmmm_'
'Flavors_'
'Cat_'
'teams_'
'spr'
'urgency_'
'trunk_'
'mixes_'
'hunting_'
'bitch'
'sab'
'fort'
'Id_'
'springs_'
'Part'
'pron'
'bons_'
'nz'
'Angus_'
' \\/_'
'Fruit_'
'wat'
'regretted_'
'lockers_'
'addiction_'
'Pumpkin_'
'Key_'
'Cher'
'900_'
'slow'
'Prom'
'Crepe_'
'bolognese_'
'Wash_'
'nsi'
'coaches_'
'tte'
'Woo'
'Grimaldi_'
'slap_'
'wel'
'pref'
'plush_'
'!!!!\10;_'
'selecting_'
'insist_'
'Sears_'
'Brewery_'
'scal'
'kam_'
'flush_'
'amuse_'
'San'
'Pon'
'Fal'
'eve_'
'cops_'
'chim'
'Ur'
'PF_'
'Brad'
'90s_'
'で'
'temp'
'24'
'jukebox_'
'ad'
'Slo'
'Danforth_'
'の'
'carbonara_'
'bangs_'
'wea'
're'
'margherita_'
' ;) _'
'chapel_'
'ax_'
'Law'
'nutrition_'
'lux'
'isch'
'awesomeness_'
' !!!!!'
'speciality_'
'represent_'
'greedy_'
'Debbie_'
'packets_'
'CLEAN_'
'Pie'
'Peach_'
'Besuch_'
'tene'
'slides_'
'seamless_'
'nis_'
'letters_'
'allem_'
'SLS_'
'messing_'
'illa'
'ified_'
'consuming_'
'consultant_'
'ase_'
'Denver_'
'Trac'
'IE'
'ön'
'schn'
'schen_'
'kein_'
'erb'
'Gut'
'Entrees_'
'use'
'discomfort_'
'hamachi_'
'clump'
'+++'
' $._'
'und'
'spell_'
'licious_'
'hä'
'forgettable_'
'Uh_'
'HA_'
'whereas_'
'collar_'
'Mul'
'scenes_'
'dle'
'PLA'
'?!'
'8th_'
'. #_'
'hr'
'confe'
'ade'
'MC_'
'Iron_'
'talkative_'
'shar'
'reco'
'panang_'
'itos_'
'Sammy_'
'Nick'
'INS'
' \10;'
'disappear_'
'Wrap_'
'DVD_'
'ook_'
'kat'
'Sp'
'Shu'
'EM'
'!!'
'ien'
'extend_'
'enforce'
'engineer'
'demanding_'
'Mills_'
'CD_'
'nge_'
'hints_'
'Singapore_'
'ück'
'poppers_'
'dispenser_'
'Different_'
':'
'27'
'mortgage_'
'errors_'
'ckle'
'boxing_'
'book'
'Keg_'
'spin'
'insulted_'
'Gan'
'dge_'
'avons_'
'assur'
'Pudding_'
'Open'
'thou'
'bun'
'Wifi_'
'Complete_'
'00am_'
'braces_'
'Lime_'
'GG'
'yearly_'
'unt_'
'tracks_'
'frequenting_'
'Minus_'
' ;-)'
'lug'
'images_'
'ero_'
'mega_'
'lend'
'Rem'
'Mobile_'
'HATE_'
'Crust_'
'98_'
'nowadays_'
'gla'
'Shee'
'Sesame_'
'por'
'lement_'
'flyer_'
'Yellow_'
'Peaks_'
'Network_'
'Comfortable_'
'att'
'Tar'
'DIE_'
'brass'
'bec'
'anderen_'
'IL_'
'uni'
'Hal'
'Bo_'
'spite_'
'rie'
'due'
'differences_'
'Ren'
'Dear_'
'Course_'
',,,'
' $$$ _'
'Mos'
'EN_'
'.\10;\10;(_'
'raising_'
'Sara_'
'Tro'
'Michelin_'
'Hei'
'Eu'
'smack_'
'costly_'
'Kai'
'Generous_'
'wheelchair_'
'sso'
'nach'
'dor'
'awkwardly_'
'Panang_'
'Nin'
'Korea_'
'Knowing_'
' :) \10;\10;_'
'liv'
'angle_'
'parm'
'deeply_'
'monkey_'
'gained_'
'ege'
'actors_'
'YA'
'Pleasant_'
'Disney_'
'ise'
'edit'
'devices_'
'battle_'
'dynamite_'
'substituted_'
'sli'
'Wah'
'protection_'
'nda_'
'measured_'
'mc'
'ass'
'Motor'
'Long'
'wd'
'shares_'
'Credit_'
'Showed_'
'Dropped_'
'Detroit_'
'teens_'
'solutions_'
'snapped_'
'punctual_'
'erf'
'Kimchi_'
'vietnamese_'
'Tex_'
'?!?'
'Bourbon_'
'stil'
'intimidated_'
'Terri'
'tablet_'
'Sk'
'Mozzarella_'
'snooty_'
'amaze'
'sends_'
'silence_'
'seine'
'off'
'hy'
'dispute_'
'bumping_'
'amp'
'Were_'
'Pap'
'ê'
'stoked_'
'lum'
'donate_'
'NOTE_'
'Her'
'Cin'
'AW'
'intr'
'fr'
'facebook_'
'ella_'
'dam'
'comics_'
'baggage_'
'automated_'
'2007_'
'pl'
'submitted_'
'stool_'
'spi'
'saltiness_'
'pitas_'
'JJ_'
'cycle_'
'counts_'
'stroller_'
'enjoyment_'
'bodies_'
'Dru'
'Bryan_'
'impact_'
'CC'
'Shoppe'
'Pou'
'Gyros_'
'gam'
'Om'
'Ham'
'Az'
'uli'
'inst'
'chalkboard_'
'ani'
' \10;-_'
'zur_'
'laden_'
'kk'
'icecream_'
'Vodka_'
'MB'
'HOUR_'
'Dean_'
' ~$_'
'shocking_'
'adopted_'
'accepting_'
'Labor_'
'Bro'
'ion'
'eyed_'
'Incredibly_'
'vouchers_'
'HR'
'Elizabeth_'
'televisions_'
'senses_'
'relatives_'
'reduce_'
'bul'
'OB'
'snotty_'
'hte'
'grou'
'california_'
'Vet_'
'CE_'
'****'
'waist_'
'stl'
'sf'
'leckere'
'bro_'
'ais_'
'tail'
'plating_'
'aha'
'rad_'
'overload_'
'.   \10;_'
'!"\10;\10;_'
'gummy_'
'Help'
'fai'
'chau'
'Chai_'
'unsu'
'signal_'
'drooling_'
'choy_'
'blessing_'
'tory_'
'cruise_'
'unappetizing_'
'granite_'
'bald_'
'wen'
'multi'
'chandeliers_'
'Sma'
'Mot'
'Cinnamon_'
'!  (_'
'exaggerating_'
'brin'
'Marsala_'
'yt'
'lp'
'ities_'
'iously_'
'TH'
'mouth'
'ern_'
'MENT_'
'Applebee_'
'wai'
'emotion'
'bli'
'attract_'
'Bab'
'1500_'
'mpe'
'ERS_'
'Cole_'
'tive_'
'irritating_'
'charcoal_'
'IVE_'
'Carm'
'joining_'
'florist_'
'eher_'
'Shannon_'
'Mode'
'sanitize'
'flank_'
'.\10;\10;*_'
'ite'
'cactus_'
'beignets_'
'Nugget_'
'Fusion_'
'tart'
'roman'
'bind'
'Hmm_'
'cot'
'Moscow_'
'wah'
'sollte_'
'die'
'Mun'
'Erin_'
'oli_'
'cc'
'Kale_'
'Au_'
'Til'
'Sak'
'???'
'rank_'
'UM'
'Girls_'
'Fountain_'
'Apple'
'tuned_'
'Pao_'
'、_'
'wis'
'remedy_'
'est'
'ast'
'Ya_'
'Dude_'
'Cheddar_'
'rise_'
'elbow_'
'Pee'
'Bol'
'bat'
'Sac'
'Maryland_'
'Bland_'
'?!_'
'shoots_'
'din_'
'sweaty_'
'nded_'
'evo'
'brave_'
'Mmmm_'
'DN'
' ... '
'unre'
'sentence_'
'plump_'
'oti'
'if'
'Westin_'
'Wellington_'
'Thin_'
'ENT_'
'shook_'
'Done_'
'AMC_'
'pei'
'hardest_'
'curb_'
'Daddy_'
'Caprese_'
'way'
'raves_'
'mish'
'briefly_'
'aftertaste_'
'affect_'
'SW'
'interview_'
'hell'
'ensured_'
'crud'
'child'
'Midwest_'
'lity_'
'unin'
'curr'
'Wing_'
'.....\10;\10;_'
'eth'
'burrata_'
'burg'
'texts_'
'ku_'
'aki_'
'Sign_'
'Grab_'
'Fair'
'----'
'`_'
'Card_'
'vani'
'reluctantly_'
'ohne_'
'kw'
'accus'
'Sho'
'utter_'
'unk'
'scampi_'
'louder_'
'forgive_'
'charts_'
'ungen_'
'pierced_'
'overs'
'bu_'
'ances_'
'Visit_'
'tiki_'
'crooked_'
'Theater_'
'Hyundai_'
'Bad'
'Ahwatukee_'
'4am_'
'$. _'
'purely_'
'ppo'
'poli'
'. *_'
'thumb_'
'neatly_'
'kar'
'Nut'
'mason_'
'danced_'
'Nikki_'
'Moo'
'zi_'
'vi'
'defensive_'
'Ravioli_'
'translate'
'soi'
'ink'
'foster_'
'assembly_'
'Gel'
'...'
'scored_'
'Training_'
'Mona'
'Brew_'
'Steaks_'
'PH_'
'Offer'
'Grand'
'hard'
'Kalbi_'
'%. _'
'we'
'Ridge_'
'Lay'
'........_'
'unbe'
'meter_'
'crawling_'
'bet'
'bel_'
'Power_'
'Lost_'
'Braised_'
'ila'
'admir'
'Rin'
'Laden_'
'Freund'
' @_'
'ultrasound_'
'joe_'
'glutton'
'fancier_'
'bins_'
'aging_'
'Mix_'
'Dol'
'140_'
'hammer'
'kil'
'excellence_'
'cub'
'Late_'
'responses_'
'palace_'
'hoo_'
'havent_'
'Tee'
'wary_'
'reas'
'mothers_'
'immensely_'
'Vegetable_'
'Shawarma_'
'Jane_'
'Charge'
'whe'
'snapper_'
'hella_'
'gather_'
'fal'
'antipasto_'
'Mess'
'IO'
'6am_'
'wicked_'
'newspaper_'
'colours_'
'Ava'
'porc'
'piercings_'
'passport_'
'isch_'
'asset_'
'LV'
'reassured_'
'Gon'
'Edi'
'Chip_'
'mailed_'
'kicks_'
'faucet_'
'ao'
'Op'
'quietly_'
'Trump_'
'sop'
'requirements_'
'nestled_'
'beginner_'
'maintaining_'
'az'
'alb'
'\10;(_'
'Linq_'
'ven'
'plat'
'lounges_'
'ther_'
'income_'
'Sage_'
'Finding_'
'Bagel_'
'succeed_'
'quin'
'quet'
'ounces_'
'mileage_'
'foul_'
'ente'
'Nordstrom_'
'Mea'
'sat'
'ient'
'reste'
'informing_'
'PEOPLE_'
'toute'
'dot_'
'Attentive_'
'ensuring_'
'dedication_'
'cana'
'bulbs_'
'avail_'
'Hop_'
'. .._'
'porch_'
'crystal_'
'additions_'
'ual'
'Scotland_'
'venti'
'ora_'
'chte'
'inca'
'dru'
'derma'
'artisan_'
'Ho_'
'Buck'
'Beat'
'Americans_'
'Support_'
'Fee'
'leb'
'Abend_'
'stab'
'monitor_'
'igi'
'iP'
'Kate_'
'relocated_'
'lica'
'Shir'
'focaccia_'
'conditioned_'
'wit'
'silky_'
'schi'
'sas'
'Pit'
'observation_'
'indifferent_'
'haus_'
'fiancee_'
'bout_'
'NEED_'
'AA'
'huevos_'
'experts_'
'az_'
'assessment_'
'CASH_'
'54_'
'tri_'
'slightest_'
'rel'
'glitter_'
'dancer_'
'banquet_'
'?!?! _'
'shopper_'
'COLD_'
'tac'
'disa'
'Bus'
'い'
'union_'
'stat'
'shoppers_'
'skate_'
'ds'
'deceiving_'
'antibiotics_'
'OS'
'FAST_'
'extension_'
'overpowered_'
'och'
'debating_'
'Sephora_'
'uncooked_'
'sac'
'distracting_'
'Tammy_'
'Shep'
'Mmm_'
'stray_'
'participate_'
'lentils_'
'engage_'
'TRU'
'Silver_'
'Gorgeous_'
'ridge_'
'jackets_'
'Yorkville_'
'Dem'
'Creamy_'
'Chad_'
'Cav'
'softer_'
'nc'
'infamous_'
'eric'
'Yumm'
'Light'
'versa'
'popularity_'
'kon'
'Vancouver_'
'musicians_'
'medications_'
'fraud_'
'eben_'
'Rai'
'cant'
'Alright_'
'spider_'
'Period_'
'31'
'upsetting_'
'inclined_'
'Sol'
'prob_'
'pos'
'midw'
'hum'
'Relax'
'uv'
'pierogies_'
'llo'
'dot'
'overh'
'HER_'
'thickness_'
'casserole_'
'bombs_'
'Tai_'
'HOW_'
'AR_'
'**'
'tweak'
'promotions_'
'infr'
'ility_'
'cious_'
'pec'
'freak'
'gua'
'educational_'
'wireless_'
'nding_'
'munchies_'
'invite_'
'contribute'
'aco'
'Barrio_'
'.  :'
'whisky_'
'soy'
'rap'
'bran'
'Uni_'
'Garage_'
'refined_'
'duh_'
'bugg'
'Cozy_'
'ABSOLUTELY_'
'warrant_'
'thy_'
'raining_'
'parlor_'
'hairstylist_'
'ag_'
')  '
'uring_'
'unforgettable_'
'trag'
'sus'
'fu_'
'chas'
'Peking_'
'ORDER_'
'pol'
'cave_'
'Nach'
'rug_'
'Busy_'
'. ._'
'improv'
'gehen_'
'ave'
'acu'
'WELL_'
'Gai'
'??\10;\10;_'
'Seared_'
'Pedi'
'Originally_'
'nab'
'cuisines_'
'RP'
'Christine_'
'unfamiliar_'
'Szechuan_'
'Bud'
'. \10;\10;- _'
'rectify_'
'Rock'
'gest'
'IL'
'FUN_'
'90'
'foremost_'
'busser_'
'Monta_'
'Eye'
' .\10;\10;_'
'tailor_'
'whisper'
'nostalgia_'
'lump_'
'flown_'
'fad'
'erg'
'enda'
'clin'
'Truck_'
'MIL'
'DOWN_'
'Cent'
'))'
'unct'
'sorta_'
'oph'
'Roman'
'urs'
'tod'
'entrées_'
'app'
'Yan'
'WORTH_'
'.). _'
'tendon_'
'saves_'
'hun'
'Salat_'
'Prov'
'Platter_'
'Liz_'
'ymo'
'cheap'
'Mam'
'vacuumed_'
'respectable_'
'gan_'
'furious_'
'し'
'hhh_'
'cy'
'Pesto_'
'Pat_'
'remainder_'
'forest_'
'depart'
'Sch'
'160_'
'pher'
'gently_'
'enta'
'72_'
'sup'
'someday_'
'mir'
'gri'
'WANT_'
'Oil_'
'quo'
'pea'
'compe'
'Stock'
'Shea_'
'International_'
'Capital_'
'CHO'
'ually_'
'bie_'
'ates_'
'arrange_'
'Rau'
'spelling_'
'cop'
'await'
'suggests_'
'prov'
'batteries_'
'Soul_'
'Dre'
'vr'
'tid'
'ote'
'fro_'
'accused_'
'Mussels_'
'mie'
'lay'
'dependable_'
'bouche_'
':)'
'terra'
'storm'
'Lebanese_'
'Dom'
'readily_'
'purses_'
'perm'
'cotta_'
'BETTER_'
'15pm_'
'love'
'gru'
'THI'
'sn'
'repeating_'
'pumps_'
'fier'
'exclusively_'
'careless_'
'argument_'
'Pha'
'?'
'rega'
'medic'
'mama_'
'MAN'
'45'
'tripe_'
'odi'
'Teller_'
'Blu'
'paw'
'lling_'
'Lettuce_'
'Goodyear_'
'drool_'
'countries_'
'Selection_'
'Angie_'
'troll'
'timed_'
'possibility_'
'pilot_'
'gent'
'aura'
'supplements_'
']'
'Cer'
'refresh'
'maximum_'
'cracking_'
'mint'
'marshmallows_'
'Louisiana_'
'sir'
'ize'
'Wei_'
'Gesch'
'varies_'
'sham'
'len'
'gat'
'expe'
'Regular_'
'COU'
'yourselves_'
'seller_'
'PRE'
'roach_'
'frag'
'evidence_'
'dose_'
'ases_'
'TI_'
'var'
'nni'
'Loco_'
'fau'
'chickens_'
'caps_'
'inspiring_'
'Starting_'
'Rica'
'..........'
'twee'
'threatening_'
'stalk'
'roses_'
'acoustics_'
'Limited_'
'Ana'
'zer'
'pao_'
'biting_'
'weird'
'ona_'
'nto'
'Cocktail_'
'Cleaning_'
'tis'
'hall'
'Pal'
'Fab'
'tatt'
'qualité_'
'gul'
'dramatic_'
'bulb_'
'towners_'
'runners_'
'movement_'
'lett'
'inf'
'EXPERIENCE_'
'..." _'
'whin'
'tilapia_'
'Gr'
'plo'
'pepper'
'hero_'
'emo'
'!!!'
'linens_'
'Times_'
'Reminds_'
'Nous_'
'tria'
'thermostat_'
'rocking_'
'pie'
'leaning_'
'ail'
'Abs'
'28'
'.\10;  _'
'leaks_'
'jede'
'garnished_'
'copies_'
'banchan_'
'Six_'
'Casual_'
'16th_'
'ev'
'anal'
'accompaniment_'
'Oh'
'Mushrooms_'
'Jr_'
'.... '
'unfair_'
'hook'
'gs'
'esa'
'cted_'
'reme'
'Shout_'
'Paw'
'Man'
'Chilean_'
'tiger_'
'tch'
'reg'
'essence_'
'conge'
'carving_'
'brav'
'Hus'
'Gabi_'
'?"\10;\10;_'
'punk_'
'measurements_'
'gab_'
'fortunately_'
'dark'
'Week'
'Organic_'
'äu'
'nutty_'
'mattresses_'
'horses_'
'charm'
'brus'
'annoy'
'Gh'
'repu'
'funds_'
'ffy_'
'delights_'
'arin'
'af_'
'spl'
'nn'
'herbal_'
'entr'
'Ordering_'
'Booked_'
'ort_'
'may'
'lish_'
'dances_'
'Chevy_'
'vé'
'nursing_'
'imb'
'Thus_'
'Some'
'STR'
'. :)\10;\10;_'
'existence_'
'Sonoran_'
'wonders_'
'stinky_'
'licensed_'
'jammed_'
'col'
'bliss_'
'gun'
'Speed'
'HVAC_'
'TSA_'
'Aj'
'pp'
'luc'
'lte'
'WOULD_'
'UL'
'.'_'
'robot'
'knives_'
'kha'
'entre_'
'ap_'
'Wu'
'Picked_'
'LESS_'
'slim_'
'regional_'
'lib'
'calzones_'
'cake'
'Greens_'
'GL'
'recht_'
'buffe'
'Octopus_'
'Glen'
'sauced_'
'magically_'
'flops_'
'court'
'cass'
'Ted_'
'wiping_'
'plum_'
'Haw'
'HOA_'
'GR_'
'All'
'08_'
'souffle_'
'proteins_'
'far'
'blends_'
'NG'
' !!!! _'
'sweet'
'les'
'all'
'Strike_'
'!!!!!  _'
'3D_'
'span_'
'nal_'
'barrel_'
'royalty_'
'ight'
'Ter'
'MM'
'unter'
'unsafe_'
'room'
'ino'
'ike'
'foundation_'
'dip'
'behalf_'
'sr'
'lag'
'holders_'
'controlled_'
'cher'
'Yea_'
'VO'
'Bor'
'.   '
'mis_'
'benny_'
'appe'
'Mark'
'Dumplings_'
'tastings_'
'durch'
'cup'
'Raspberry_'
'Karte_'
'jack'
'cia_'
'cave'
'WIN'
'Non_'
'Card'
'rai'
'lig'
'fragrant_'
'illi'
'Indi'
'telephone_'
'slipped_'
'bleach_'
'Glo'
'expanding_'
'descent_'
'burro_'
'ao_'
'\10;\10;- _'
'CM'
'garten_'
'Travis_'
'Kenny_'
'Jan'
'Ace_'
'....'
'inflated_'
'Bone'
'darts_'
'coupled_'
'begging_'
'tap'
'tam'
'dah'
'Jen'
'Goo'
'Beers_'
'wood'
'cate_'
'advertisement_'
'Kur'
'Dodge_'
'scallions_'
'reset_'
'hou'
'gene'
'ew'
'compa'
'china_'
'Poo'
'Gnocchi_'
'sé'
'meine_'
'lom'
'conse'
'ciabatta_'
'brainer_'
'Siam_'
' :)  _'
'accomplished_'
'Cle'
'sofas_'
'represented_'
'perfectionist_'
'lens_'
'audacity_'
'sensor_'
'eis'
'doll_'
'chandelier_'
'schedules_'
'ponzu_'
'intake_'
'hoo'
'carp'
'Leb'
'Bull'
'47_'
'volcano_'
'ude'
'shee'
'rily_'
'jealous_'
'ban_'
'overc'
'omakase_'
'notify_'
'like'
'blasting_'
'Steamed_'
'APP'
'northern_'
'kitty_'
'grills_'
'joked_'
'deni'
'buyers_'
'Yikes_'
'Hier_'
'EP'
'Casey_'
'uncon'
'turnaround_'
'sole'
'bour'
'nb'
'Purchased_'
'Bear'
'tand'
'keen_'
'growth_'
'skim'
'balloon_'
'Postino_'
'LLY_'
'Gee'
'yers_'
'volunteers_'
'geared_'
'default_'
'wreck_'
'Who'
'Sliders_'
'Po_'
'noises_'
'flare_'
'Ree'
'HAPPY_'
'Bed_'
'avocados_'
'Bloom'
'uve'
'rav'
'oss'
'jewel_'
'ik'
'curd_'
'Sing'
'vou'
'sever_'
'guilt_'
'bereit'
'Shortly_'
'Lol'
'seasons_'
'lesser_'
'Vie'
'Pale'
'yelper_'
'motorcycle_'
'lic_'
'ell'
'art'
'aesthetic_'
'Tou'
'Bai'
'"?'
' --_'
'rc'
'loaner_'
'jams_'
'gh'
'accents_'
'remembering_'
'eee'
'educate_'
'utilize_'
'substitutions_'
'mig'
'emphasis_'
'disturbing_'
'clogged_'
'buses_'
'Beg'
'vicinity_'
'stink_'
'smash_'
'robbed_'
'reso'
'profi'
'overcrowded_'
'nian_'
'largely_'
'Trail_'
'Tomatoes_'
'Michel'
'Macy_'
'march'
'grated_'
'enclosed_'
'article_'
'Acc'
'travelers_'
'registered_'
'Shopping_'
'Dallas_'
'BJ_'
'?...'
'tort'
'stretching_'
'printer_'
'pres'
'ppe'
'conta'
'Gio'
')....'
'toro_'
'mand'
'eyelashes_'
'cata'
'Exceptional_'
'tremendously_'
'mounted_'
'line'
'ecstatic_'
'boil_'
'teri'
'salesmen_'
'heirloom_'
'Udon_'
'zen'
'rap_'
'pers_'
'gir'
'Luis_'
'Dough'
'Az_'
'09_'
'sses_'
'parsley_'
'ales_'
'Sla'
'Berry_'
'Arts_'
'mé'
'Wed_'
'Bruce_'
'weddings_'
'sq_'
'dig'
'Devil_'
'ssa'
'rib'
'pré'
'cirque_'
'WW'
'Field_'
'Cookies_'
'  \10;_'
'transformed_'
'plague_'
'elaborate_'
'clarify_'
'barbeque_'
'Ami_'
'tonkatsu_'
'smi'
'communicating_'
'Black'
'.\10;* _'
'ranks_'
'ington_'
'boo_'
'Received_'
'pulls_'
'lon'
'jap'
'fresh'
'..."'
'unb'
'kauf'
'avo'
'?).'
'."\10;_'
'ole'
'ct_'
'carrier_'
'boy'
'Speisen_'
'Final_'
'Cow'
'thigh_'
'savor_'
'rancheros_'
'horn_'
'tram_'
'iot'
'freundliche'
'Tour_'
'Mis'
'CB'
'toiletries_'
'strikes_'
'rica'
'halo_'
'youngest_'
'teppanyaki_'
'stream'
'boiling_'
'airlines_'
'VER'
'HOURS_'
'Con_'
'rent'
'peeve_'
'overst'
'leur_'
'ginormous_'
'doggy_'
'backs'
'Whit'
'poster_'
'etto_'
'Bud_'
'sprinkle_'
'shouting_'
'relati'
'posh_'
'casually_'
'Game_'
'Aqua'
' -'
'shoved_'
'coz_'
'Zen_'
'Water'
'Tips_'
'Hyatt_'
'tn'
'rescheduled_'
'optional_'
'drawing_'
'Zone_'
'rag'
'input_'
'198'
'vacation'
'conn'
'ait_'
'Hon'
'fist_'
'bam'
'ndr'
'misses_'
'imitation_'
'fewer_'
'exc'
'WHERE_'
'Possibly_'
'Hop'
'Cr'
'!!!)'
'teller_'
'pedis_'
'pala'
'odo'
'Candy_'
'sions_'
'shining_'
'scou'
'rve'
'installers_'
'cracks_'
'Wir'
'speci'
'mart_'
'ii'
'Gran'
'Bev'
'schools_'
'panels_'
'instruments_'
'Tha'
'Sale'
'té_'
'shelter_'
'indecisive_'
'esta'
'divided_'
'Snow_'
'OC'
'collar'
'Germany_'
'Als_'
'towers_'
'Tart'
'Imp'
'Hit_'
'motion_'
'Suc'
'Jam'
'Hakka_'
'Gym_'
'FF'
'tast'
'bedding_'
'Stratosphere_'
'Rat'
'Jewish_'
'üh'
'vest'
'nig'
'decides_'
'cheery_'
'ID'
'ALL'
'ova'
'affair_'
'ud_'
'representation_'
'leash_'
'fil'
'eer'
'auto'
'Od'
'Alt'
'puri'
'lifted_'
'ez'
'encore_'
'drain'
'buzzing_'
'annoyance_'
'IKEA_'
'Eh_'
'paced_'
'oranges_'
'blin'
'ash_'
'Krist'
'Dish_'
'tracking_'
'toujours_'
'prepaid_'
'fil_'
'belli'
'Fort_'
'Flor'
'lak'
'evenly_'
'drinkers_'
'challenges_'
'vomit_'
'suppl'
'shark_'
'mt'
'enroll'
'disrespect_'
'cloud_'
'Isn_'
'360_'
'--- _'
'realistic_'
'oli'
'claws_'
'Treasure_'
'Reservations_'
'Joes_'
'En_'
'executive_'
'amb'
'Glas'
'ABC_'
'mighty_'
'fulfill_'
'TL'
'Phenomenal_'
'FIVE_'
'43_'
'convi'
'continental_'
'vaca'
'unexpectedly_'
'recieved_'
'figures_'
'MA_'
'Fac'
'undi'
'os'
'ime'
'defense_'
'counter'
'Seven_'
'Often_'
'Lou_'
'zl'
'mouthwatering_'
'Lowe_'
'Working_'
'Carrot_'
'genre_'
'affi'
'Jalapeno_'
'Esp'
'unsere'
'una_'
'porta'
'plas'
'influence_'
'fastest_'
'cking_'
'Wedding_'
'!?!?'
'rus'
'researching_'
'officer_'
'hanger_'
'dan_'
'Crap'
'tage_'
'rle'
'permission_'
'cheated_'
'Hob'
'BRI'
'providers_'
'gno'
'qualify_'
'ped'
'employ'
'eba'
'Sonn'
'Que'
'Alas_'
'-\10;_'
'rer_'
'cocoa_'
'breakdown_'
'varying_'
'Alaskan_'
'unwind_'
'erne'
'berg_'
'Start_'
'??_'
'scu'
'musi'
'jambalaya_'
'gn_'
'Swedish_'
'Lat'
'Comme'
'reside'
'mature_'
'glory_'
'duo_'
'Superb_'
'Sign'
'Bridal_'
'hob'
'haw'
'Golf_'
'Carson_'
'Cadillac_'
'rat_'
'pits_'
'indie_'
'dings_'
'defective_'
'boot'
'blocking_'
'Terminal_'
'Michigan_'
'Meal_'
' :\\/'
'motivated_'
'Cod_'
'70'
'stell'
'nea'
'definetly_'
'causes_'
'suck'
'linguini_'
'gle_'
'emb'
'coe'
'+'
' !'
'nel_'
'RUN_'
'IR'
'nis'
'marinade_'
'imper'
'ae_'
'Making_'
'COO'
'shortage_'
'refreshed_'
'glow_'
'TE'
'ESS_'
'Back'
'Bachi_'
'witness_'
'sublime_'
'stringy_'
'gere'
'Shel'
'Hours_'
'Cha_'
'Cab_'
'zwei_'
'regrets_'
'hri'
'heavier_'
'desp'
'bounce_'
'Flat_'
'unavailable_'
'script_'
'successfully_'
'sarcastic_'
'plant'
'mars'
'Taking_'
'SAME_'
'sugar'
'powerful_'
'law'
'Palm_'
'Ka_'
'Dennis_'
'ther'
'ste_'
'staffing_'
'shaded_'
'fied_'
'decorating_'
',, _'
'stinks_'
'restored_'
'https_'
'Say_'
'Hispanic_'
'Fen'
'CL'
'Ara'
'zz'
'meilleur'
'eo'
'enhanced_'
'attent'
'Monica_'
'Hall'
'esh'
'tolle'
'teenager_'
'ean_'
'Dev'
'Cal_'
'verb'
'sync'
'rell'
'landing_'
'improving_'
'Grou'
'Fue'
'trou'
'coaster_'
'terrified_'
'pray_'
'pper_'
'musta'
'compli'
'Kl'
'favour_'
'cian'
'wig'
'void_'
'tolerable_'
'rundown_'
'chic'
'chai'
'scheme_'
'remade_'
'reflects_'
'discovering_'
'breasts_'
'vote_'
'pup'
'Wok_'
'Mei'
'stag'
'purposes_'
'lul'
'grande_'
'FOREVER_'
'Ev'
'Depending_'
'yep_'
'craps_'
'bing'
'Jenn'
'FLA'
'winter'
'uta'
'restock'
'oral_'
'jeden_'
'introduction_'
'grossed_'
'disposal_'
'conco'
'TON_'
'Pre'
'ESP'
'ête'
'brag_'
'blond_'
'bend_'
'balloons_'
'Gorgonzola_'
'sorely_'
'evil_'
'cue_'
'centers_'
'aer'
'mort'
'awards_'
'Pei_'
'pattern_'
'mur'
'empt'
'Falls_'
'Bis'
'........'
'layover_'
'ett'
'disabled_'
'ach_'
'SH'
'ever'
'Tastes_'
'REC'
'Oc'
'Far_'
'pal_'
'Phx_'
' . \10;_'
'uer'
'Wel'
'Lori_'
'Kent_'
'Atlanta_'
'mee'
'chat'
'William_'
'Us_'
'SHE_'
'Monkey_'
'peoples_'
'oversized_'
'Learn'
'Cub'
'!\10;- _'
'frit'
'enth'
'Currently_'
'town'
'Donna_'
'Bron'
' (?) _'
'zan'
'deny_'
'Für_'
'Boyfriend_'
'wrist_'
'upt'
'erk'
'bookstore_'
'. ('
'worlds_'
'personalities_'
'incre'
'hankering_'
'earthy_'
'co'
'\10;--'
'Yorker_'
'Giving_'
'Ee'
'! :) _'
'tolerate_'
'leisurely_'
'intriguing_'
'icia'
'ices_'
'UK_'
'noting_'
'importance_'
'ick'
'WHI'
'Mocha_'
'Fashioned_'
'tori'
'Id'
'rims_'
'lighten'
'kl'
'GOD_'
'ANYONE_'
'"..'
'faint_'
'Ultimately_'
'CHICKEN_'
'periods_'
'nightly_'
'damages_'
'bridesmaids_'
'behaved_'
'Bulgogi_'
'DD'
'shin'
'ption_'
'operator_'
'lock'
'delightfully_'
'ST'
'tate'
'processing_'
'imagination_'
'minat'
'crank'
'Class_'
' \10; '
'spends_'
'residence_'
'placement_'
'nge'
'cult'
'cts_'
'ader'
'Fil'
'unco'
'pancetta_'
'motor'
'incompetence_'
'blaring_'
'\10;\10; _'
'Frank'
' & '
'verge'
'unethical_'
'tures_'
'shabu_'
'pect'
'part'
'friggin_'
'custom'
'Ski'
'Work_'
'Wayne_'
'Every'
'outl'
'Rit'
'Lie'
'renew_'
'hug_'
'chipping_'
'Zeit_'
'Stan'
'mojitos_'
'fields_'
'chia'
'Suz'
'Nad'
'LS_'
'windy_'
'slurp'
'sky'
'furnishings_'
'diversity_'
' ! \10;\10;_'
'schl'
'hut_'
'drau'
'Johns_'
'wishes_'
'pass'
'ences_'
'astonish'
'WAR'
'Heart'
'Daily_'
'marvelous_'
'hak'
'fit'
'confronted_'
'SOME'
'DJs_'
'Art'
'wrapper_'
'suspicious_'
'saffron_'
'kettle_'
'heaping_'
'PBR_'
'sul'
'stomachs_'
'simplicity_'
'premi'
'ndo'
'insert_'
'haired_'
'gorgonzola_'
'compos'
'ML'
'Kim'
'ik_'
'ame'
'Tucked_'
'Meatballs_'
'Russ'
'". '
'yp'
'vac'
'goof'
'Fit'
'CH'
' :)\10;_'
'screamed_'
'ooo'
'notable_'
'exi'
'ense'
'consisting_'
'Biscuits_'
'spoil_'
'leis'
'WARNING_'
'Risotto_'
'Loa'
'Hau'
'Firefly_'
'sot'
'recycl'
'rece'
'monorail_'
'lactose_'
'ador'
'!\10;\10;\10;_'
'seam'
'intersection_'
'gé'
'coordinator_'
'Oregano_'
'Matthew_'
'ripping_'
'Ug'
'lla'
'abge'
'oooo'
'enn'
'ened_'
'Spo'
'Dishes_'
'legitimate_'
'gant'
'erry_'
'Maid'
'Exactly_'
'Colle'
'85'
'toddlers_'
'tex'
'peut_'
'kee'
'cran'
'bark_'
'aufge'
'ades_'
'Rip'
'PACKED_'
'Dive'
'tze'
'smo'
'erm'
'eria_'
'cken_'
'Bruschetta_'
'*** _'
'Stat'
'Shin'
'Broccoli_'
'2006_'
'tine_'
' . \10;\10;_'
'unr'
'disre'
'Yuk'
'Score_'
'Save'
'Philadelphia_'
'Chin'
'Brewing_'
'wellness_'
'mono'
'dusted_'
'bagged_'
'WERE_'
'STU'
'AY_'
'tric'
'spouse_'
'ologist_'
'new'
'lav'
'attend'
'Spend_'
'Ran'
'Du_'
'DER'
'rode_'
'hovering_'
'guides_'
'bé'
'Salted_'
'Grey_'
'Captain_'
'BB_'
'weary_'
'risk'
'recommends_'
'munch_'
'lian'
'jar'
'dish'
'Maria'
'sue'
'festive_'
'enhance_'
'boost_'
'Karaoke_'
'Fer'
'Band'
'urb'
'screams_'
'nse'
'mex_'
'ente_'
'Wonder'
'ush'
'rable_'
'drawer_'
'TER'
'Above_'
'exhaust_'
'contents_'
'II_'
'Heart_'
'weigh_'
'theory_'
'Tax'
'Stre'
'MRI_'
'Coach_'
'Circle_'
'Bene'
'volunteer_'
'shellfish_'
'packet_'
'lecti'
'chs'
'We'
'Traditional_'
'FAVORITE_'
'EUR_'
'Brot'
'rl'
'labels_'
'OUS_'
'Harr'
'sodium_'
'moi_'
'30min_'
'.\10;\10;"_'
'Mon'
'Gab'
'stad'
'mix'
'fut'
'blackberry_'
'Whiskey_'
'TRA'
'Sche'
'Hin'
'Gina_'
'rts_'
'oste'
'mbl'
'locksmith_'
'ently_'
'busted_'
'attribute'
'Allen_'
'ANOTHER_'
'sci'
'quis'
'TION_'
'LC'
'Electric_'
'towing_'
'invent'
'flexibility_'
'Yellowtail_'
'Sinatra_'
'Grass'
'quantities_'
'overwhelmingly_'
'headaches_'
'Viet_'
'Suns'
'Sett'
'Clar'
'vera'
'rigatoni_'
'odds_'
'jou'
'filters_'
'Whe'
'FR'
'Alle'
'lange_'
'dope_'
'Bil'
'rad'
'MON'
'Budget_'
'"-'
'san_'
'interactions_'
'fas'
'SK'
'Giada_'
'Coa'
'äch'
'subject'
'selbst_'
'Post_'
'retrieve_'
'Temp'
'Ocean_'
'NS_'
'Jonathan_'
'Gau'
'wre'
'slapped_'
'newbie_'
'crumble_'
'ax'
'unaware_'
'prim'
'itu'
'dist'
'Tiger_'
' \10;\10;'
'iva'
'awa'
'Bod'
'waved_'
'ince'
'farmer_'
'emotional_'
'Furniture_'
'york_'
'stunned_'
'mous'
'grout_'
'eliminate'
'cleanings_'
'ung'
'royal_'
'overcharge_'
'injured_'
'Morning_'
'Kh'
'Jet'
'Abb'
'nci'
'hine_'
'gor'
'form'
'debris_'
'barley_'
'Ups'
'RED_'
'Pearl_'
'Carnitas_'
'exp'
'empanada_'
'dash'
'Kell'
'Diane_'
',  '
'oe'
'hearted_'
'Sc'
'Haus_'
'thee_'
'rr'
'lip'
'lassi_'
'goers_'
'cautious_'
'Rita_'
'tli'
'lf'
'fam_'
'alit'
'PIZZA_'
' **'
'repairing_'
'ost'
'Ic'
'vents_'
'sweater_'
'strain'
'sie'
'couscous_'
'UFC_'
'Spr'
'Pos'
'Pier'
'Burg'
'vene'
'tunnel_'
'stun'
'mou'
'gio'
'extent_'
'capture_'
'adapt'
'Vet'
'Vanessa_'
'Johnson_'
'surpassed_'
'released_'
'ough'
'Lynn_'
'mule_'
'evi'
'erh'
'ega'
'dis_'
'charger_'
'acknowledgement_'
'veteran_'
'variation_'
'crib'
'Smell'
'Sigh_'
'unan'
'ican'
'buttercream_'
'Isa'
'Hannah_'
'boasts_'
'adobo_'
'stem'
'prize_'
'kara'
'DES'
'Boot'
' ='
'time'
'tet'
'beaucoup_'
'Fort'
'Ele'
'Buyer_'
'Blo'
'drowned_'
'Edit_'
'verm'
'ey'
'Kid_'
'Comp'
':-)'
'!\10;\10;-'
'slowest_'
'enticing_'
'chor'
'WONDERFUL_'
'Shoe'
'Night'
'Mala'
'Items_'
'Entertainment_'
'typing_'
'sp'
'ige_'
'capp'
'bic'
'Sant'
'Rey'
'Quin'
'OT_'
'MS_'
'JE'
'Inn'
'Bul'
'tas'
'takoyaki_'
'expedi'
'clay_'
'aut'
'alan'
'Panini_'
'PR'
'Jade_'
'!    _'
'please'
'nap'
'banks_'
'Wie'
'Stor'
'too'
'snake_'
'Westgate_'
'Conf'
'Brew'
'yy_'
'uit_'
'pai'
'kiss_'
'bumps_'
'Sit'
'Saigon_'
'zug'
'NED_'
'Down'
'Ant'
'unbearable_'
'trouve'
'occur'
'jet_'
'Adob'
'vee'
'tones_'
'scope_'
'challenged_'
'raisins_'
'ln'
'cooled_'
'Walnut_'
'Outdoor_'
'BUSINESS_'
'!!!   _'
'gap_'
'fixes_'
'UP'
'Tap'
'äs'
'shake'
'rela'
'nel'
'ini'
'dome_'
'communicat'
'carved_'
'Rel'
'Ew_'
'Egg'
'Decatur_'
'Carmel_'
'BAR_'
'!)\10;_'
'tting_'
'transport_'
'rill'
'licked_'
'essi'
'curve'
'class'
'Feels_'
'Dec_'
'77_'
'word'
'sums_'
'some'
'shir'
'peppery_'
'main'
'cherries_'
'bere'
'applying_'
'Scra'
'Addi'
'56_'
'yn'
'rium_'
'muy_'
'historical_'
'doubles_'
'wich_'
'lion_'
'exce'
'cosmetic_'
'NS'
'Lowes_'
'.), _'
'parl'
'onsite_'
'failing_'
'ander'
'Feel_'
'Falafel_'
'rse_'
'resting_'
'ony_'
'idi'
'geht_'
'conflict'
'WAIT_'
'TWICE_'
'Sriracha_'
'QUI'
'Excuse_'
'Duc'
'DW'
'Cactus_'
'ー'
'tonic_'
'spelled_'
'resulting_'
'miscommunication_'
'manufacture'
'kki'
'envi'
'CONS_'
'carnivore_'
'agr'
'PROS_'
'nightlife_'
'indicating_'
'fid'
'eit_'
'dissapoint'
'Leslie_'
'kung_'
'ZE'
'!!   _'
'robust_'
'belle_'
'awe'
'River'
'Portland_'
'Dur'
'utmost_'
'sewer_'
'pid'
'Harkins_'
'Craft_'
'Arro'
'12pm_'
'vul'
'believer_'
'Ichi'
'qualities_'
'né'
'hur'
'fear'
'exaggeration_'
'cci_'
'wenig_'
'obs'
'ific'
'hack'
'disconnected_'
'ces'
'verified_'
'pert'
'nest_'
'lop'
'fanatic_'
'dial'
'JU'
'Beau'
'warm'
'skipping_'
'icy_'
'chronic_'
'brace'
'Keller_'
'Bier'
'zin'
'vag'
'legendary_'
'justified_'
'fur'
'ae'
'Uns'
'Jo_'
'Airlines_'
'weigh'
'toasty_'
'scann'
'rli'
'crum'
'cockroach_'
'cavities_'
'ambi'
'BREA'
'sick'
'ows_'
'hazard_'
'glit'
'OUR_'
'NJ_'
'Cheeseburger_'
'CLE_'
'umi'
'honeymoon_'
'command'
'Alan_'
'spanish_'
'rope_'
'refuses_'
'peppercorn_'
'divey_'
'cis'
'Sticky_'
'Cla'
'Arriv'
'traveler_'
'sympa'
'stacks_'
'restrict'
'gha'
'Ultimate_'
'strap'
'indicate_'
'contin'
'VA'
'DL'
'waterf'
'trim'
'tore_'
'Una'
'KN'
'Corporate_'
'specify_'
'leicht_'
'itch'
'FT'
'üb'
'polo'
'mang'
'impos'
'cutter_'
'DA_'
'tm'
'teil'
'refunds_'
'masc'
'cease'
'Rewards_'
'Dill'
'vacant_'
'tension_'
'reflection_'
'pend'
'lord_'
'Stea'
'Boo_'
'roads_'
'responding_'
'inn_'
'frying_'
'considerably_'
'TAKE_'
'panna_'
'aller_'
'Skin_'
'Scha'
'Kabob_'
'tighten'
'quand_'
'partners_'
'mixer'
'lar_'
'fia'
'contest_'
'ark_'
'hopeful_'
'heav'
'exter'
'Porter_'
'FF_'
'10;'
'ute'
'ques'
'war'
'lia_'
'ere'
'cuticle_'
'broad_'
'approve_'
'abandoned_'
'respected_'
'critique_'
'blur'
'Swe'
'Stella_'
'Lobby_'
'mont'
'gger'
'Mir'
'Lab'
'Khao_'
'Hum'
' - "_'
'submit_'
'shred'
'kommt_'
'ality_'
'Multiple_'
'nons'
'assed_'
'Pilates_'
'Crunch_'
'wle'
'visi'
'vide'
'obtain_'
'fo_'
'centrally_'
'arit'
'ahs_'
'Cri'
'rim'
'fris'
'eck'
'cabanas_'
'58_'
'25th_'
'strat'
'pans_'
'chart_'
'bathe'
'artsy_'
'Quiet_'
'Feb_'
'Afterwards_'
'mant'
'Tiny_'
'Ch'
'Caf'
'nan_'
'Wide_'
'Thr'
'Pep'
'utt'
'roo'
'grilling_'
'Scre'
'Kay_'
'Cari'
'vu'
'masterpiece_'
'lowered_'
'injuries_'
'han_'
'deserving_'
'bikini_'
'addict_'
' ) '
'unagi_'
'swor'
'ox'
'low'
'fights_'
'Yi'
'ATE'
'61'
'tto'
'dazu_'
'cus'
'cko'
'Gui'
'Clark_'
'.(_'
',"'
'ranged_'
'radius_'
'hops_'
'deliveries_'
'aromatic_'
'Pair'
'Mead_'
'Mal_'
'Lesson_'
'Boar'
'oreo_'
'government_'
'asshole_'
'alis'
'Rudy_'
'Herb'
'photo'
'ority_'
'ongoing_'
'lucked_'
'gab'
'favor'
'belief_'
'MAN_'
'Lasagna_'
'Fix_'
'Chopped_'
'tre_'
'raisin_'
'novel_'
'funeral_'
'exceed_'
'dunno_'
'dg'
'curiosity_'
'compressor_'
'Oo'
'Major_'
'. \10;\10;-_'
'taquitos_'
'racing_'
'face'
'dav'
'brau'
'atm'
'Taro_'
'Ian_'
'A1_'
'tous_'
'sprout_'
'haunted_'
'grind_'
'front'
'dh'
'scrubb'
'clips_'
'TLC_'
'tinting_'
'mmi'
'Queso_'
'PC_'
'END'
'Ahh'
'       '
'worthless_'
'great'
'diarrhea_'
'atr'
'LOUD_'
'vation_'
'mone'
'ization_'
'ena_'
'Quebec_'
'Medical_'
'INT'
'Arrowhead_'
'sy'
'shapes_'
'extract'
'dup'
'Ae'
'!!  '
'waking_'
'squares_'
'specified_'
'experiment'
'SOL'
'criminal_'
'Loud_'
'Durango_'
'Alles_'
'.. \10;_'
'pris'
'hinge'
'compote_'
'ali_'
'stocking_'
'pose_'
'fum'
'curl'
'confirming_'
'hipp'
'gles_'
'appo'
'Rosemary_'
'IV_'
'Frankly_'
'CRA'
'1200_'
'stereo_'
'shines_'
'oro'
'ised_'
'imm'
'Ruben_'
'Rap'
'Moroccan_'
'serene_'
'ois_'
'Strip'
'Gast'
'Deal'
'01_'
'た'
'vanity_'
'tailored_'
'miniature_'
'hic'
'fun'
'York'
'Mule_'
'uille_'
'socialize_'
'poses_'
'lent'
'Getränke_'
'AK'
'115_'
'. & _'
'tamarind_'
'princess_'
'peeled_'
'faulty_'
'faded_'
'decor'
'oard_'
'lated_'
'imo'
'gend'
'drill_'
'document_'
'cris'
' ;'
' (?'
'urn'
'tavern_'
'lone_'
'fli'
'dm'
'Valentines_'
'Pam_'
'Aveda_'
'41'
'visibly_'
'spill_'
'slam_'
'rotors_'
'lur'
'housemade_'
'Doctors_'
'"! _'
'iron'
'anne_'
'actively_'
'Hab'
'Design_'
'soo'
'seri'
'reh'
'Hill'
'twists_'
'reassuring_'
'acidic_'
'. -'
'yme'
'vein'
'tec'
'maps_'
'igu'
'halls_'
'crafts_'
'Winter_'
'viol'
'stas'
'nai'
'attentiveness_'
'ork'
'madness_'
'lage_'
'component_'
'blow'
'aff'
'STI'
'Mal'
'vouch_'
'keeper_'
'groo'
'cinema_'
'butts_'
'aug'
'NFL_'
'vending_'
'upti'
'unload'
'tubes_'
'Vick'
'RIC'
'Ap'
'Already_'
'yle_'
'yd'
'vocal'
'roll'
'Tit'
'Terrific_'
'Interior_'
'Dana_'
'Ceviche_'
'snail'
'curls_'
'crow'
'cart'
'Ray'
'Ani'
'web'
'rd'
'promote_'
'nke'
'green'
'gf'
'fus'
'Dos_'
'DB'
'Crowd'
'zes_'
'PH'
'702_'
'teeny_'
'sala'
'dub'
'beginners_'
'Ikea_'
'Frankie_'
'Burn'
'í'
'hygiene_'
'Courtney_'
'Corner_'
'::'
'pimento_'
'Limo'
'Cola_'
'yog'
'ution_'
'imagin'
'deb'
'camping_'
'Orch'
'Lines_'
'Britney_'
'trashy_'
'shan'
'profession_'
'isc'
'format_'
'Mashed_'
'weil_'
'umbrellas_'
'tapp'
'questioning_'
'limes_'
'einige'
'chin_'
'Words_'
'UC'
'Pup'
'plan'
'neighbour'
'iner'
'concoctions_'
'Ame'
'tors_'
'relie'
'nn_'
'microbrew'
'ment'
'GRA'
'Came'
'painfully_'
'kno'
'hit'
'diligen'
'Thu'
'TU'
'Sec'
'Kona_'
'Creative_'
'umb'
'tne'
'lime'
'letzte'
'hol_'
'harassed_'
'grati'
'Shanghai_'
'Pick'
'5am_'
'temperatures_'
'pumped_'
'bled_'
'Stand'
'Blue'
'tic'
'reflexology_'
'past'
'amusing_'
'allerdings_'
'ai'
'Law_'
'Jazz_'
'Fan'
'9th_'
'sips_'
'paste'
'omina'
'ids_'
'examples_'
'ener'
'Exp'
'yelped_'
'worm'
'sights_'
'county_'
'Sic'
'Pear_'
'Nurse'
'FIL'
' :( '
'shad'
'screws_'
'robes_'
'ppi'
'eville_'
'dun'
'disappear'
'LD_'
'Jacob_'
'Department_'
'yr'
'rme'
'richtig_'
'proven_'
'needle_'
'escalator_'
'Sli'
'Maine_'
'Halibut_'
'Farmer_'
' '
'stic'
'osh'
'maj'
'equi'
'bookmarked_'
'aca'
'Sunrise_'
')..'
'rh'
'ison_'
'iat'
'alarm'
'Marco_'
'Gardens_'
'Drop_'
'CLT_'
' ! \10;_'
'unwilling_'
'plantain_'
'blowout_'
'aqua'
'Sm'
'Rue'
'Raw_'
'Children_'
'Bao_'
'oat'
'grin_'
'entitled_'
'douche_'
'audit'
'ante'
'Victor_'
'purposely_'
'omni'
'lounging_'
'his'
'hem_'
'drum_'
'diese_'
'boarded_'
'alin'
'Gy'
'Diet_'
'Complimentary_'
'Boil'
'wealth_'
'rey_'
'nne'
'nger_'
'ital'
'gritty_'
'ecc'
'commit_'
'NAS'
'juana_'
'isa'
'grandparents_'
'doubled_'
'barbacoa_'
'Step_'
'Schwartz_'
'Dai'
'uy'
'quent'
'mble_'
'ipa'
'exams_'
'codes_'
'Saint_'
'Cracker_'
'Cot'
'Ah'
'!...'
'shoestring_'
'reu'
'mut'
'jungle_'
'gamble'
'forcing_'
'west'
'rip'
'illusion'
'drin'
'POS'
'Bos'
'trimming_'
'rés'
'parmigiana_'
'implant'
'ethic_'
'Hel'
'64_'
'$.'
'sum'
'sparkle'
'samosa_'
'intern'
'drill'
'approaching_'
'Med_'
'Fred_'
'Brazil_'
'sk'
'riti'
'recogniz'
'platinum_'
'overse'
'XX'
'Rea'
'OUTSTANDING_'
'NYE_'
'Concord_'
'AV'
'?)'
'tol'
'melty_'
'lemons_'
'dura'
'calendar_'
'bob_'
'Theatre_'
'Gate'
'Free'
'+. _'
'+.'
'jit'
'flipped_'
'. :_'
'peek_'
'dryers_'
' ....'
'youth_'
'thanksgiving_'
'doi'
'Chai'
'Bummer_'
'peruse_'
'marriage_'
'lg'
'ive'
'inco'
'fluids_'
'blic'
'affe'
'Thir'
'Reg'
'Movers_'
'Brand_'
'viv'
'uh'
'stored_'
'nity_'
'harass'
'bedrooms_'
'Pastrami_'
'PPE'
'LOO'
' ?'
'workshop'
'tari'
'stan'
'mea'
'heap'
'embe'
'ehe'
'SUCKS_'
'Grandma_'
'190'
'sel_'
'receptionists_'
'mod'
'masa'
'inconsiderate_'
'fühl'
'ffa'
'compar'
'cara'
'Kit'
'? (_'
'RA_'
'Lot_'
'well'
'virgin_'
'unw'
'pest'
'appr'
'amateur_'
'Thi'
'THR'
'SUP'
'Philipp'
'Fas'
'Alleg'
'tain'
'meiner_'
'marathon_'
'lac'
'frig'
'esthetician_'
'accurately_'
'!) \10;\10;_'
'taff_'
'responds_'
'repe'
'fou'
'fand'
'click'
'admire_'
'Matt'
'LIFE_'
'41_'
'! :'
'omy_'
'hle'
'guin'
'dad'
'Pastr'
'mond'
'ieur_'
'elev'
'cous_'
'Vers'
'JO'
'Helpful_'
'shower'
'resembled_'
'presents_'
'lect'
'chiropractic_'
'Listen_'
'Ballantyne_'
'uniforms_'
'uga'
'silent_'
'meringue_'
'cardi'
'build'
'broad'
'Schnitzel_'
'Freddy_'
'spaced_'
'godd'
'chen'
'Kir'
'Champagne_'
'wha'
'issa'
'intolerant_'
'hed'
'esc'
'elite_'
'cano'
'bagg'
'acid_'
'Sex'
'STAR_'
'Jos'
'unlikely_'
'rive'
'ially_'
'formerly_'
'cushions_'
'Thinking_'
'Tah'
'Maintenance_'
'Barro'
'noticeably_'
'macaroon_'
'lastly_'
'gathered_'
'exchanged_'
'deba'
'brea'
'attach'
'Takes_'
'Mimi_'
'Mich'
'tele'
'ic'
'bitte'
'Rebecca_'
'Dentist_'
'snicker'
'ique_'
'infant_'
'god'
'dismissive_'
'Rol'
'solar_'
'progressive'
'margin'
'Via'
'PS'
'Mazda_'
'tard'
'rage_'
'iel'
'cross'
'Wtf_'
'Preis'
'LIE'
'INC'
'Doc_'
'Brampton_'
'", "_'
'Than'
'Seri'
'Marg'
'Kinder'
'Cath'
'tonkotsu_'
'terr'
'nation'
'mock_'
'housing_'
'Added_'
'umes_'
'sten_'
'produc'
'poke'
'Krispy_'
'Blow'
'unheard_'
'mai'
'jour_'
'Wet_'
'Hence_'
'20th_'
'ubi'
'tem'
'sma'
'sent'
'bunn'
'VA_'
'Jump'
' ;)'
'wage'
'identified_'
'detract'
'anticipation_'
'Vu'
'Howard_'
'Archi'
' :) '
'sed'
'haul_'
'daytime_'
'Money_'
'Grape'
'!!!!!!!!!!'
'rung_'
'permanently_'
'ean'
'brussels_'
'announced_'
'Joy_'
'Joy'
'     _'
'transactions_'
'kt_'
'Marc'
'81'
'waived_'
'unh'
'ower'
'ioned_'
'colder_'
'cabin_'
'barbe'
'Reserv'
'dere'
'crash_'
'blind'
'VING_'
'BUR'
'19th_'
' $$$$'
'xa'
'oz'
'nonexistent_'
'moisture_'
'fty_'
'frapp'
'fairness_'
'Dairy_'
'ßer'
'zzi'
'uck_'
'Pint'
'shoyu_'
'mille'
'harmon'
'expir'
'circles_'
'buys_'
'Spoke_'
'Rh'
'Leon'
'Centennial_'
'Aga'
'orna'
'mans_'
'hai'
'DR'
'Boulevard_'
'kebabs_'
'intelligent_'
'ene'
'Serrano_'
'Broadway_'
'Anthem_'
'pupusas_'
'ordina'
'expressi'
'arte'
'Sonic_'
'GT'
'Flam'
'sterile_'
'smok'
'sagen_'
'revol'
'pian'
'opp'
'oint'
'humans_'
'Rub'
'sis'
'burns_'
'Hip'
'Fur'
'tati'
'host'
'Subs_'
'Subaru_'
'Lemonade_'
'recover_'
'mbo'
'gimmick'
'cate'
'assembled_'
'Fli'
'07_'
'!). \10;\10;_'
'upgrading_'
'unsanitary_'
'set'
'cutlet_'
'commi'
'Sub_'
'EXACTLY_'
'tum'
'surly_'
'patro'
'illu'
'igan'
'honey'
'flame_'
'effe'
'brim_'
'Mort'
'Maris'
'profusely_'
'framed_'
'euro'
'ducks_'
'dishe'
'Holl'
'GH'
'yg'
'verl'
'mop_'
'manic'
'gm'
'assez_'
'Tot'
'Sophi'
'Reco'
'Pools_'
'Own'
'verbally_'
'sleeve_'
'pale'
'clog'
'TOP_'
'Marr'
'@'
'test'
'pod'
'launch'
'ject'
'expedite'
'devour_'
'acr'
'Publi'
'!, _'
'sate'
'idl'
'heal'
'esti'
'Tremont_'
'Sh'
'PRICE'
'Horr'
'99'
'discovery_'
'Mastro_'
'Enter_'
'trump'
'clarifi'
'butter'
'Mission_'
'Mini'
'Erica_'
'Board_'
'tattooed_'
'siu_'
'pigs_'
'pari'
'mentally_'
'km'
'drowning_'
'cou'
'cor'
'THING_'
'Gerichte_'
'scissors_'
'mud_'
'kitschy_'
'colla'
'charlotte_'
'Val'
'Nap'
'LINE_'
' . '
'yea'
'rarity_'
'prompted_'
'pills_'
'heal_'
'Set_'
'Eth'
'By'
'partic'
'SoCal_'
'Net'
'Br'
'uuuu'
'shutt'
'roe_'
'ress_'
'prob'
'crab'
'scen'
'practi'
'ock_'
'mam'
'effectively_'
'contracted_'
'Say'
'xx_'
'nty_'
'lé'
'hro'
'acne_'
'Ser'
'Lucy_'
' :).'
'willingness_'
'unimpressive_'
'inspector_'
'iert_'
'every'
'churro_'
'Tryst_'
'mouse_'
'clip_'
'Sus'
'Life'
'Jared_'
'raci'
'mound_'
'insist'
'Slightly_'
'SEA'
':\10;\10;-_'
'transfer'
'offi'
'assi'
'Penn'
'LAS_'
'51'
'smith_'
'rien'
'quit'
'practical_'
'nette'
'kor'
'furry_'
'completing_'
'ado'
'Scho'
'Matthews_'
'LOTS_'
'Inte'
'Comm'
'pus'
'ls'
'invested_'
'fascinating_'
'carafe_'
'banking_'
'Space_'
'Donut_'
'Cantina_'
'transp'
'sman_'
'cottage_'
'bang'
'attic_'
'Samba'
'Moved_'
'tal'
'radar_'
'poolside_'
'graph'
'asses_'
'Bagels_'
'Alice_'
'stamps_'
'shampoo'
'rag_'
'fishing_'
'cork'
')!  _'
'ruins_'
'paninis_'
'lee_'
'essed_'
'enthusiast_'
'Rich'
'Jol'
'Form'
'robe_'
'rats_'
'onic'
'donation_'
'crumbled_'
'ais'
'Roman_'
'disclose'
'Sca'
'.\10;*_'
'weapon'
'riz'
'password_'
'parti'
'ements_'
'coll'
'SC'
'Phil'
'Lum'
'- $_'
'!!!!!!! _'
'oke'
'obliged_'
'nna_'
'grows_'
'bby_'
'Wong_'
'yuzu_'
'vict'
'tahini_'
'logical_'
'jet'
'fulfilling_'
'Opti'
'Lai'
'GAR'
'Fru'
'Eiffel_'
'tles_'
'scrambl'
'ppy_'
'bothers_'
'Tie'
'LOVES_'
'zum'
'sponge_'
'sandals_'
'retra'
'rehearsal_'
'obse'
'negotiate_'
'bathing_'
'atic'
'allot'
'UGH_'
'Twi'
'Pf'
'PAI'
'Albert'
'uate'
'privilege_'
'deux_'
'clerks_'
'braid'
'awar'
'THE'
'NY'
'Ment'
'Maggie_'
'Jin'
'unpl'
'skating_'
'quito'
'operations_'
'judged_'
'eil'
'defend'
'Omelet_'
'Nicely_'
'thor'
'reflected_'
'oxi'
'beam'
'appear'
'Heights_'
'BOTH_'
'vable_'
'gated_'
'completion_'
'THO'
'Firestone_'
'wears_'
'tarte'
'soul'
'ots_'
'Sandy_'
'Mik'
'Flan'
'Anniversary_'
'46_'
'zig'
'tik'
'rist'
'grade'
'PLE'
'methods_'
'finger'
'disin'
'curi'
'SAL'
'Marsh'
'INCREDIBLE_'
'Hub'
')!!'
'uce'
'paci'
'frost'
'fon'
'ballpark_'
'automotive_'
'Tandoori_'
'Roti_'
'Native_'
'Eaton_'
'Crown_'
'Bento_'
'BO_'
'Appe'
'swirl_'
'photograph'
'Wash'
'Him'
'Cashier_'
'verr'
'pictured_'
'marsala_'
'flick'
'Terra'
'Robert'
'NICE_'
'Lon'
'Coco_'
'Ang'
'71'
'gleich_'
'differ'
'apple'
'Urbana_'
'Tran'
'shortcake_'
'mum_'
'gue'
'TM'
'Et_'
'wb'
'val_'
'solid'
'similarly_'
'seal'
'cess'
'Spar'
'Sir'
'Sens'
'Mou'
'KA_'
'Diners_'
'Dani'
': (_'
'!" '
'äl'
'tione'
'obscure_'
'mies_'
'linger_'
'latin'
'erel'
'dl'
'capital_'
'Sent_'
'Moj'
'swallow_'
'harr'
'ep_'
'dress'
'Deluxe_'
'ugh'
'uch'
'orch'
'oir_'
'hari'
'Platinum_'
'Inf'
'swordfish_'
'schw'
'refrigerated_'
'puzzles_'
'fer_'
'fang'
'Wonton_'
'Wag'
'Schn'
'Nate_'
'KS_'
'takeaway_'
'iza'
'generation_'
'fy_'
'avoir_'
'Vine'
'Barr'
'utilit'
'unremarkable_'
'siz'
'lli_'
'ffer'
'bish'
'Spirit_'
'uph'
'tered_'
'recognition_'
'ogra'
'flakey_'
'claustrophobic_'
'bac'
'NOPE_'
'tche'
'refusing_'
'geri'
'fussy_'
'functioning_'
'comps_'
'STO'
'uninspired_'
'pom'
'maids_'
'gent_'
'development_'
'bahn_'
'Servi'
'Nom_'
'Kenne'
'GS_'
'Der'
'Cleanliness_'
'ér'
'loco_'
'insight_'
'divide'
'Leider_'
'Kon'
'Classy_'
'BLE'
'"? _'
'rra'
'hie'
'conver'
'bum'
'beneath_'
'Jac'
'Eat'
'Big'
'scallion_'
'repri'
'premade_'
'ones'
'ift'
'chocolat'
'SLOW_'
'Kni'
'EG'
'inte'
'gl'
'ferr'
'cchi'
'bach'
'autres_'
'attest_'
'Tour'
'MP_'
'Apache_'
'.' _'
'scht_'
'menta'
'ix_'
'entre'
'enne_'
'disor'
'direct'
'diet'
'ctor_'
'Rok'
'Fleisch_'
'??!!'
'iu'
'gio_'
'fee'
'circular_'
'Parma_'
'slathered_'
'purée_'
'Whi'
'Mang'
'Eb'
'soupy_'
'pru'
'dens'
'PER'
'souvenirs_'
'rubbing_'
'prepped_'
'mackerel_'
'ison'
'gian'
'awake_'
'Yogurt_'
'Pine'
'Din'
'troubles_'
'population_'
'kum'
'gradua'
'ete'
'ctive'
'boom_'
'ame_'
'Williams_'
'Son_'
'Grat'
'DRINK'
'CHEAP_'
'Annie_'
'uth'
'soa'
'gristle_'
'gos_'
'Spadina_'
'Rare_'
'KO'
'Bum'
'Asparagus_'
'transform'
'swim'
'rock'
'eres'
'applies_'
'TONS_'
'Barber_'
'tolerance_'
'classi'
'carn'
'bears_'
'Highlights_'
'Hang'
'wristband'
'albacore_'
'AA_'
' =)'
'whisk'
'sunshine_'
'summ'
'rge'
'reminding_'
'makers_'
'ky'
'incident'
'import'
'gn'
'Vera'
'IMP'
'vil'
'prot'
'pristine_'
'mul'
'feather'
'clip'
'tastefully_'
'sport'
'55'
'ück_'
'transit_'
'ctions_'
'amaze_'
'ables_'
'SNS_'
'surviv'
'spoonful_'
'ousness_'
'milli'
'Tac'
'Fiesta_'
'. :) '
'wed'
'tue'
'rator'
'demo'
'chopp'
'choi'
'Maca'
'Crepes_'
'ACC'
'ves'
'smooth'
'ripoff_'
'MU'
'swore_'
'stranded_'
'shattered_'
'sexual_'
'makeover_'
'invest'
'igat'
'disposable_'
'conte'
'Sams'
'Ott'
'Ooo'
'Dig'
'Advan'
'Admittedly_'
'whopping_'
'syr'
'organiz'
'geg'
'Rosa_'
'Pepperoni_'
'Jill_'
'Heav'
'BM'
'twin_'
'synthetic_'
'social'
'pasties_'
'freaked_'
'cranberries_'
'bras_'
'amm'
'Suggest'
'Enchiladas_'
'Class'
'42'
'banging_'
'\\_'
'YEA'
'Tob'
'Spl'
'Pancake_'
'Im'
'91'
'tal_'
'pris_'
'patios_'
'news'
'fritter_'
'cute'
'coins_'
'Eis'
'tas_'
'etz'
'ding'
'cam'
'buzzed_'
'bellagio_'
'Sala'
'Rocket'
'unl'
'hahaha_'
'eclair'
'acco'
'EST_'
'3000_'
'sni'
'rous_'
'nerves_'
'abu'
'TH_'
'Stumbled_'
'Martin'
'Jean'
'! :_'
'unit'
'overpa'
'homeowner'
'dock'
'cost'
'cies_'
'bies_'
'Ritz_'
'Negative'
'Grace_'
'Extr'
'...!'
'warr'
'pret'
'platform_'
'mens_'
'iz'
'blatantly_'
'Pink'
'tack'
'shift'
'diesem_'
'Through_'
'PAT'
'Few_'
'toll_'
'monday_'
'mainstream_'
'iffy_'
'hs'
'Melt'
'starch_'
'ris_'
'lemony_'
'anit'
'Oregon_'
'MJ_'
'trusting_'
'total'
'können_'
'ire'
'exceeds_'
'dispos'
'Alli'
' ;) '
'reports_'
'proportions_'
'mph_'
'landlord_'
'kla'
'decorative_'
'comprehensive_'
'St'
'Fu_'
'Flu'
'Bahn_'
'sidewa'
'ntie'
'grad_'
'anchovies_'
'Doo'
'Cai'
'subm'
'occur_'
'keit_'
'creaminess_'
'acknowledging_'
'wri'
'slat'
'iled_'
'iers_'
'hul'
'gow_'
'foo_'
'eid'
'echo_'
'Malaysian_'
'tai'
'leche_'
'dismissed_'
'ankle_'
'Wolfgang_'
'Micro'
'Buddy_'
'是'
'wo_'
'periodically_'
'ove'
'oked_'
'favors_'
'eve'
'arepa_'
'afternoons_'
'ATE_'
'ngle'
'lde'
'gies_'
'einmal_'
'designers_'
'bridesmaid_'
'abe'
'Close'
'uu'
'tortellini_'
'punch'
'lifel'
'gett'
'alco'
'Pis'
'voi'
'socializing_'
'singers_'
'scold'
'rif'
'laptops_'
'joi'
'deeper_'
'chant'
'cca'
'accomodate_'
'TB'
'Let'
'sculpt'
'redeemed_'
'pour'
'denn_'
'wer_'
'sper'
'seul'
'lah'
'ening_'
'ammo_'
'Yo_'
'Prosciutto_'
'Paneer_'
'Leaf_'
'Imm'
'. \10;\10;   '
'üs'
'phase_'
'nga'
'guava_'
'donc_'
'dded_'
'chalk'
'cere'
'bill'
'aesthetically_'
'adv'
'acupuncture_'
'Roo'
'stretched_'
'rch'
'potatoe_'
'mers_'
'healthcare_'
'extra'
'camel'
'SEE_'
'Bay'
'strangely_'
'ops_'
'grim'
'ITE'
'Gin'
'EAR'
'DOES_'
'recorded_'
'draws_'
'distinguish'
'dice_'
'Si_'
'McG'
'Leo_'
'Flay_'
'Basic_'
'.  \10; '
'scra'
'manageable_'
'ethics_'
'craziness_'
'brightly_'
'Platz_'
'Pia'
'ught'
'original'
'idk_'
'expiration_'
'crumbly_'
'arepas_'
'Schw'
'Nik'
'Gue'
'.\10;\10;  _'
'steam'
'gebra'
'endi'
'disinterested_'
'develop_'
'cked_'
'Zoo_'
'Sono'
'Ow'
'Denise_'
'Barre'
'éri'
'silk_'
'sb'
'rst'
'pork'
'ntra'
'handsome_'
'cum'
'cord'
'bruise'
'ank'
'access'
'Yard'
'UA'
'Tamar'
'Liked_'
'Cool'
'sly_'
'behavio'
'TUR'
'North'
'Medic'
'werent_'
'shri'
'sev'
'ode'
'goug'
'dodg'
'chiles_'
'accomplish_'
'! ;)'
'appeal'
'TGI'
'PHO'
'Deal_'
'Cornish_'
'Christopher_'
' ! '
'referrals_'
'mec'
'fond'
'broiled_'
'adas_'
'Troy_'
'Miss'
'Lyn'
'Diana_'
'Charl'
'unpack'
'raun'
'priceless_'
'paths_'
'oozing_'
'ille_'
'dispatch'
'bless_'
'RT_'
'Popp'
'Marcus_'
'Insurance_'
'Gall'
'Feli'
'Disneyland_'
'Angry_'
'2005_'
'196'
'rivals_'
'ironi'
'inspiration_'
'crit'
'cheese'
'Lord_'
'Couple_'
'.    '
'!!  \10;\10;_'
'raff'
'duct'
'assign'
'Wein'
'KA'
'Cy'
'ût'
'Shadyside_'
'Ave'
'ysi'
'unpre'
'rup'
'nic_'
'issued_'
'crumb_'
'cancelling_'
'Umm_'
'Lave'
'pât'
'crema_'
'Peppers_'
'Grub'
'Fairly_'
'):\10;'
' :-)'
'lia'
'hes'
'concessions_'
'RIP_'
'Oxtail_'
'MMM'
'Gäste_'
'pause_'
'batt'
'acquired_'
'sim'
'reve'
'mes'
'hopped_'
'dafür_'
'culate'
'canceling_'
'boi'
'Matcha_'
'Cut'
'Cane_'
'thr'
'peer'
'headphones_'
'copper_'
'accompa'
'Wenn_'
'Summ'
'Juli'
'Hou'
')!_'
'yam_'
'wok_'
'threaded_'
'supervis'
'looooo'
'ision'
'distribut'
'coc'
'bian'
'beast_'
'ains'
'agen'
'What'
'SHOULD_'
'Pow'
'Book'
') , _'
'plaster'
'lio'
'kie_'
'???\10;\10;_'
'.... \10;\10;_'
')- _'
'vase'
'sne'
'onne'
'inl'
'greeter_'
'flooded_'
'bend'
'Similar_'
'Popcorn_'
'Ess'
'Date_'
'Caro'
'...\10;'
'sway'
'seren'
'scenario_'
'saver_'
'oma'
'defin'
'antly_'
'Derek_'
'Bow'
'mgr_'
'frantic'
'employed_'
'deci'
'Brio_'
'... (_'
'sew'
'rink_'
'lichkeit'
'infl'
'div'
'PRICE_'
'Oct_'
'Nei'
'Lazy_'
'Gene'
'EXPE'
' +_'
'rago'
'llt_'
'indulged_'
'dat'
'consi'
'bric'
'ate'
'Sapporo_'
'Kne'
'Dawn_'
'pse'
'lds_'
'lab'
'Control_'
'94'
'tableside_'
'eten'
'endea'
'ain'
'Tattoo_'
'Marketplace_'
'Legend'
'Brenda_'
'BOGO_'
', " _'
'sund'
'pun'
'kurz'
'imaginable_'
'graphic_'
'floored_'
'erl'
'RD_'
'Equi'
'Andre'
'tease'
'kas'
'hurried_'
'females_'
'exemplary_'
'enf'
'appre'
'Pecan_'
'Ip'
'Huh_'
'snapp'
'rate'
'enc'
'defeat'
'anger_'
'pica'
'nor'
'enu'
'chives_'
'anticipating_'
'YING_'
'Trai'
'Natalie_'
'Lic'
'IMHO_'
'sixt'
'bake'
'bail'
'Wand'
'Nov_'
'44'
'viele_'
'scenic_'
'rio_'
'respect'
'nche'
'museums_'
'log'
'liebe'
'hat'
'fare'
'dled_'
'convey'
'collecting_'
'blog_'
'apricot_'
'Raku_'
'Oasis_'
'Nest'
'Lion_'
'Discover'
'Diese'
'Chan'
'rted_'
'install'
'impressi'
'containing_'
'cola_'
'boule'
'appro'
'\10;+ _'
'Packe'
'70s_'
'zzard'
'requirement_'
'rance'
'graham_'
'ettes_'
'eon'
'endur'
'decaf_'
'absolut_'
'War_'
'TEA'
'Rand'
'Library_'
'phoned_'
'expl'
'experiment_'
'escap'
'doubt'
'Ret'
'Regi'
'Opera'
'vital'
'throws_'
'Ma_'
'Kath'
'Broke'
'ALSO_'
'???_'
'! - _'
'olin'
'invisible_'
'YO'
'Jewel'
'Impress'
'Hip_'
'upwards_'
'stages_'
'sc'
'rant'
'radiator_'
'pens'
'blad'
'bis'
'Sof'
'ws'
'mazing_'
'avait_'
'Toy'
'Sob'
'Lind'
'unic'
'scha'
'rew'
'neck'
'collected_'
''''
'tempt'
'sorted_'
'ppe_'
'ola_'
'diese'
'afford'
'Wasabi_'
'Snap'
'Return_'
'Lube_'
'EDC_'
'Ali_'
' :('
'sant'
'here'
'ehh'
'clowns_'
'arent_'
'advis'
'Court_'
'..."_'
'ès_'
'hue_'
'coffee'
'busboy_'
'buckets_'
'Hibachi_'
'DIY_'
'magnet'
'checkin_'
'abuse_'
'Women_'
'Entr'
'Deu'
'Auf'
'Amazingly_'
'ATT'
'umbrella_'
'spra'
'revi'
'ndere'
'nas_'
'mpl'
'imo_'
'chill'
'andi'
'Smoothie_'
'MAY'
'Cover'
'Cleaners_'
'unc'
'toothp'
'thread_'
'strand'
'overr'
'lee'
'haggl'
'eu_'
'concerning_'
'cki'
'Omelette_'
'LIN'
'Hell'
'Cucumber_'
'?". _'
'tian_'
'ressi'
'pumping_'
'oooooo'
'crostini_'
'bump'
'Kick'
'Hog'
'FB_'
'Dentistry_'
'treasures_'
'pursu'
'perfume_'
'fl'
'filtered_'
'canyon_'
'AME'
':) '
'tape'
'shel'
'sembl'
'sectional_'
'lott'
'had'
'exclud'
'banda'
'Yelp'
'Soda_'
'MAKE_'
'DING_'
'Anti'
'-\'
' !!\10;'
'nced_'
'inated_'
'dev'
'Simon_'
'SCAM_'
'Phillip'
'PG'
'Meine'
'LEA'
'Ea'
'Buddha_'
'15min_'
'02_'
'upcharge_'
'undera'
'thon'
'punish'
'inject'
'fireworks_'
'feat_'
'dara'
'biking_'
'Zach_'
'THESE_'
'Steele'
'Manny_'
'Es'
'??????'
'?).  _'
'usher'
'tä'
'tional_'
'salespeople_'
'precision_'
'phe'
'offe'
'decrease'
'crus'
'br'
'auc'
'Ten'
'sales'
'firm'
'drift'
'cci'
'OK'
'Contra'
'pent'
'lusi'
'Superior_'
'Rating_'
'Head'
'Bier_'
'Alb'
'shuttles_'
'osa'
'lush_'
'kart'
'intent_'
'Kristin'
'Eng'
'37'
'nized_'
'hend'
'croc'
'cranky_'
'PRI'
').\10;'
'scamm'
'restrain'
'phenom'
'mora'
'interrupting_'
'forty_'
'dollop_'
'credits_'
'arriv'
'Omni'
'Luci'
'Die'
'Day'
'?! '
'".\10;_'
'replica'
'present'
'orme'
'hawk_'
'cloths_'
'Weekend_'
'Pitt_'
'Moe_'
'Jahr'
'Finished_'
'Dee_'
'upp'
'llin'
'lassen_'
'humm'
'factors_'
'examined_'
'Catherine_'
'pharmacist_'
'nausea'
'forma'
'descript'
'captured_'
'call'
'Rig'
'IST'
'Buy'
'Atmosphäre_'
'sundaes_'
'compact_'
'actor'
'weis'
'relay'
'porterhouse_'
'outrageously_'
'malt'
'dom'
'colon'
'Tur'
'Town'
'FABULOUS_'
'Customers_'
'34'
'ème_'
'youtube_'
'stupid'
'obi'
'greatness_'
'Lom'
'Envy_'
'Dominic'
'BUY_'
'treadmill_'
'tract'
'star'
'rde'
'invitation'
'fast'
'bud'
'Compar'
'wallpaper_'
'pave'
'besser_'
'bearing_'
'Tiki_'
'Fisch'
'uous_'
'thereafter_'
'scammed_'
'more'
'journ'
'ister'
'dripp'
'Vietnam_'
'Tequila_'
'Motel_'
'Magn'
'Carol_'
'vine_'
'rrrr'
'papa'
'oso'
'Playe'
'Mo_'
'FOUR_'
'trains_'
'spreads_'
'ioni'
'growl'
'cle_'
'bble_'
'YEARS_'
'Number_'
'Finger'
'FRE'
'Expedia_'
'Einstein_'
'tostadas_'
'tended_'
'loft_'
'liars_'
'herd'
'got'
'frische'
'Wolf'
'Shit'
'Joann'
'pad'
'ope'
'eak'
'depend_'
'cette_'
'alternate_'
'Soy_'
'Cinc'
'20min_'
'suffice_'
'stor'
'radi'
'oregano_'
'nami'
'empathy_'
'dread'
'arg'
'OTHER_'
'Murphy_'
'Hakkasan_'
':('
'' (_'
'stripe'
'midst_'
'lon_'
'hav'
'entice'
'Prince_'
'Mitchell_'
'LOCATION_'
'?)\10;\10;_'
'zombie_'
'ssss'
'owl'
'nchi'
'intentionally_'
'confess'
'accounta'
'Coup'
'threat'
'spre'
'pampering_'
'jul'
'grin'
'dles_'
'coast'
'cky_'
'circ'
'appalling_'
'REVIEW_'
'RAL'
'Mojito_'
'versed_'
'loos'
'kü'
'glove_'
'REA'
'Picasso_'
'Esca'
'Cowboy_'
'raspberries_'
'object'
'itas_'
'glare'
'drown_'
'Spain_'
'MEA'
'Cook'
'Chr'
'450_'
'path'
'mines'
'heat'
'grainy_'
'ead_'
'chilaquiles_'
'alte'
'aic'
'Vic'
'Spark'
'Positive'
'tien'
'skyline_'
'legge'
'kni'
'hme'
'crumbles_'
'chicks_'
'Scotch_'
'82'
'wider_'
'showcase_'
'scanned_'
'reiterate'
'ota'
'moder'
'drastically_'
'desires_'
'brighter_'
'Teeter_'
'Doll'
'wires_'
'voted_'
'vial_'
'rito'
'neue'
'nes'
'fettuc'
'dread_'
'desirable_'
'\10; '
'Tas'
'Sev'
'Goodwill_'
'Gil'
'él'
'mode'
'destin'
'celebrities_'
'cd'
'cape'
'Boa'
' %'
'}'
'volumes_'
'shru'
'short'
'cumin_'
'Lim'
'!\10;\10;\10; _'
'て'
'nne_'
'hera'
'dv'
'dac'
'conveyor_'
'cheeks_'
'billi'
'baker_'
'atin'
'airb'
'Une_'
'Stout_'
'Stand_'
'Drunken_'
'Corned_'
'57_'
'shuffle'
'ono'
'mozz'
'erries_'
'enz'
'Dum'
'Detail'
'splash'
'Vita'
'UD'
'Thick_'
'OH'
'Hotels_'
'ooze'
'junior_'
'déj'
'dne'
'ahhh'
'Prompt_'
'Housekeeping_'
'Fed'
'CHARGE'
'Brulee_'
'leader_'
'ition'
'injections_'
'hl_'
'giggle'
'Spea'
'PAS'
'Neo'
'MD_'
'Disc'
'Dal'
'66_'
'wide'
'turn'
'poblano_'
'oni_'
'eux_'
'ebel'
'dys'
'cattle_'
'bbe'
'Julia_'
'Georg'
'.-'
'öh'
'suc'
'settling_'
'ind'
'favorable_'
'crooks_'
'competing_'
'Wes'
'Rom'
'Lakes_'
'$ '
' ???'
'urd'
'teaches_'
'overlooks_'
'bypass_'
'Windows_'
'Common'
'CLOSED_'
'yams_'
'try'
'market'
'mailing_'
'lingering_'
'conduct_'
'complains_'
'clock'
'ac'
'Spin'
'Sept_'
'Luna_'
'Elle'
'Antonio_'
'spit'
'shortc'
'rapi'
'partly_'
'chow'
'Wood_'
'Von_'
'Poke'
'OOO'
'BRA'
'trotz'
'pc_'
'orie'
'mpi'
'impr'
'fears_'
'ewa'
'cater'
'bekommen_'
'artist'
'Straight_'
'Lindsey_'
'. \10;  _'
') \10;'
'vers'
'scooped_'
'ising_'
'eben'
'conservative_'
'boc'
'bev'
'Tuscan_'
'SOU'
'Donald_'
'Betty_'
'Aug'
'protecti'
'mud'
'manne'
'eigentlich_'
'caf'
'breed_'
'Meatball_'
'す'
'unge'
'tera'
'pedestrian_'
'newbies_'
'ido_'
'grains_'
'gooo'
'gemacht_'
'cour'
'Donn'
'+ '
'speakeasy_'
'pierogi_'
'navigati'
'inten'
'inquiry_'
'fart'
'dream'
'disregard_'
'damned_'
'Land_'
'Floor_'
'06_'
'wollte'
'volleyball_'
'travelling_'
'statues_'
'onc'
'iii'
'finely_'
'dimsum_'
'bracelet_'
'Pala'
' ****'
'shadow_'
'read'
'pronounced_'
'but'
'WASTE_'
'Maui_'
'LG'
'Barne'
'AI'
'+)'
'sensi'
'reader_'
'earrings_'
'bois'
'bare'
'Roger_'
'Prima'
'Idk_'
'EMP'
'Alba'
'weighed_'
'walmart_'
'tings_'
'rugs_'
'leu'
'decorate_'
'ceramic_'
'bestellt_'
'ami_'
'Topped_'
'Congrat'
'?!)'
'zwar_'
'underw'
'team'
'monk'
'fei'
'draw'
'Kab'
'Chip'
'lift'
'kitchenette_'
'etiquette_'
'esse'
'download_'
'deer_'
'Midw'
'Macaroni_'
'Leave_'
'Barbara_'
'.)\10;_'
' &_'
'regrett'
'nit_'
'nif'
'withdraw'
'spilling_'
'kto'
'grit'
'finishes_'
'document'
'comforter_'
'Vent'
'Porto'
'?\10;'
'probier'
'prettie'
'newborn_'
'hotpot_'
'cleanse_'
'TL_'
'Sour'
'Ras'
'GV'
'Fit_'
'Dance_'
'??? '
' !!!!_'
'vague_'
'tment'
'sentiment'
'mow'
'lous'
'jedoch_'
'cting_'
'creat'
'chimichurri_'
'bad'
'attracts_'
'Smoke'
'MAC_'
'voices_'
'replies_'
'recording_'
'masters_'
'init'
'gree'
'embar'
'arch'
'Towe'
'Ruby_'
'CHECK_'
'riche'
'num'
'jacked_'
'hee'
'eter'
'erst_'
'cream'
'Sat'
'Parm_'
'Ori'
'Hate_'
'Def'
'24h'
'unapologetic_'
'spear'
'ock'
'mitte'
'implie'
'hon_'
'hail'
'corp'
'common'
'Tort'
'Sooooo_'
'Arnold_'
'が'
'ume'
'there'
'orthodonti'
'needles_'
'nch_'
'machen_'
'lun'
'hast'
'gged_'
'dy'
'comb_'
'carnivor'
'boats_'
'IMA'
'Coca_'
'wad'
'uncommon_'
'ug'
'sinus'
'manual_'
'huff'
'hitch_'
'gram_'
'divi'
'Side'
'Pros'
'Contin'
'Beck'
'resse'
'rende'
'outright_'
'insulat'
'gol'
'garment'
'ester'
'Por'
'tti'
'kennel_'
'crunchi'
'chr'
'anes'
'abilities_'
'Queens_'
'Hil'
'!!!\10;'
'rhy'
'milky_'
'iphone_'
'inne'
'gastro'
'Vel'
'Ple'
'Jon'
'Creat'
'venison_'
'traumati'
'tier'
'ston_'
'sba'
'repa'
'performer_'
'manicurist_'
'hia'
'disclosure_'
'Safe'
'QUE'
'Choose_'
'snack'
'shaving_'
'prevent'
'moins_'
'erv'
'elu'
'duct_'
'Yogurt'
'WAL'
'Brand'
'ths_'
'rete'
'fuse'
'Stone'
'Moc'
'Kat_'
'Cris'
'Courte'
'supplied_'
'sight'
'picki'
'lta'
'hood'
'cluttered_'
'awaiting_'
'asu'
'assault'
'ake_'
'Truth'
'RM'
'Premium_'
'!!!!! '
'ted'
'prioriti'
'piles_'
'og_'
'meth'
'kf'
'kenne'
'intoxicated_'
'fresca'
'conduct'
'Mia_'
'rocky_'
'rick_'
'inge'
'Thor'
'EAT'
'tus_'
'table'
'slic'
'niche_'
'interests_'
'drunks_'
'bueno_'
'aul'
'Monte'
'Mono'
'Lily_'
'Crisp_'
'Clam_'
'Avondale_'
'prawn_'
'heel_'
'eigh'
'cuti'
'FC'
'105_'
'.\10;\10;* _'
') . _'
'äft'
'ven_'
'stew'
'gula'
'eeeee'
'arc'
'agon'
'Sal_'
'PAY_'
'Kabu'
'Jack'
'Comfort_'
':\10; '
'starve'
'raz'
'hw'
'commercials_'
'belts_'
'Wear'
'Stacy_'
'Epic_'
'68_'
',...'
'wert_'
'mr'
'marvel'
'iant_'
'helper'
'hc'
'clutch_'
'barri'
'\10;\10;-_'
'Theres_'
'Minute'
'Essen'
'truc'
'psy_'
'hap'
'handbag'
'expression_'
'cio'
'chur'
'cheer_'
'SAN'
'Primanti_'
'Mach'
'Kri'
'vig'
'roaming_'
'power'
'pink'
'hh'
'grip'
'diamonds_'
'authorized_'
'Noir_'
'Midwood_'
'Hof'
'Grande_'
'~~'
'suburban_'
'slack'
'negativ'
'kna'
'conf'
'abb'
'Wells_'
'LAST_'
'Ald'
'.!'
'politan_'
'knit'
'fs'
'consignment_'
'chs_'
'bleed_'
'basmati_'
'Wra'
'Wer_'
'Samantha_'
'Patr'
'Environment_'
'Eats_'
'Dolce_'
'15th_'
'!!!!!!!!!'
'scum'
'phy'
'oops_'
'lengua_'
'humid_'
'hew'
'ghts_'
'fantas'
'doused_'
'dieser_'
'bow'
'Waiters_'
'Sprin'
'Shock'
'Pec'
'Han'
'Grits_'
'Bird_'
': \10;- _'
').\10;\10;'
'"\10;'
'zep'
'wonder'
'sal_'
'rattle'
'phere_'
'insisting_'
'hater'
'debate_'
'Summary_'
'Moreover_'
'wheel'
'pod_'
'pleas'
'offen'
'drywall_'
'critic_'
'bullet_'
'astr'
'agua'
'Caref'
'Cant'
'princ'
'give'
'flu_'
'erw'
'epitome_'
'envision'
'chm'
'chilies_'
'bicycle_'
'affected_'
'Winterlicious_'
'Us'
'GER'
'76'
'365_'
'vern'
'lvi'
'logi'
'drawers_'
'downgrade'
'Minuten_'
'Diablo_'
'unden'
'ular'
'than'
'scorpions_'
'plea'
'oad_'
'nod_'
'migraine'
'kosher_'
'hopp'
'doubts_'
'Ranch'
'Bing'
', \10;\10;_'
'white'
'viel'
'ogi'
'masses_'
'ip_'
'ffs_'
'coul'
'absent_'
'Tun'
'Salty_'
'Nation_'
'Grad'
'?\10;\10;'
'religious_'
'observa'
'endure_'
'emi'
'Missi'
'.  :)'
'smelt_'
'poo_'
'oy_'
'halal_'
'ewe'
'bs'
'Whis'
'WN'
'Ques'
'Pav'
'Oz'
'Myself_'
'Israel'
'Entree_'
' :-) _'
'traded_'
'scraped_'
'massaged_'
'erle'
'effortless'
'ande'
'abl'
'Thrifty_'
'Broth_'
'shaw'
'rse'
'positively_'
'pilla'
'overp'
'identity_'
'fue'
'electro'
'circuit_'
'['
'SOOO_'
'Gree'
'wick'
'votre_'
'trends_'
'scape'
'owing_'
'lsi'
'humongous_'
'hmmm_'
'converse_'
'Verm'
'Tartare_'
'phil'
'malfunction'
'jerks_'
'Squa'
'Dou'
'Chi_'
'Arr'
':)\10;\10;_'
'ño'
'yag'
'ropes_'
'growler_'
'dieses_'
'alway_'
'Kah'
'CAN'
'Asians_'
'transparent_'
'sought_'
'public'
'adjust'
'Spencer_'
'GROSS_'
'Fina'
'. ;)'
'studie'
'pper'
'ose'
'mob_'
'jetzt_'
'hma'
'dha'
'ddy_'
'alli'
'WTH_'
'TTC_'
'Sport'
'SOME_'
'NoDa_'
'zie'
'smart'
'signa'
'mos_'
'lse'
'highlighted_'
'even'
'crinkle_'
'chel'
'Wr'
'Chapman_'
'Barry_'
'tore'
'ring'
'resc'
'renovat'
'reclining_'
'plate'
'ood'
'ntal'
'ito'
'interacting_'
'ign'
'blackb'
'apr'
'Ry'
'Pickle'
'Nit'
'Nigiri_'
'Cody_'
'uz'
'locale_'
'kri'
'hmm_'
'hani'
'ganze'
'Willy_'
'WEEK'
'HHH'
'Brow'
'subsequent_'
'stripper_'
'petit'
'interr'
'ece'
'distinct'
'bekommt_'
'Plain_'
'Pl'
'Halo_'
'に'
'stea'
'punctu'
'nourriture_'
'gelat'
'broc'
'asso'
'Vista_'
'Pest_'
'NA_'
'Mmmmm_'
'novice_'
'nomi'
'igen_'
'eso'
'curt'
'Somewh'
'49'
'zzle_'
'truthful'
'shipment_'
'estr'
'duc'
'claw_'
'YUMM'
'Pad'
'Ans'
'mpa'
'günstig'
'dicta'
'consumption_'
'banter_'
'acce'
'Mary'
'GOO'
'Fris'
'Bamb'
'remarks_'
'laughter_'
'hybrid_'
'empf'
'breath'
'Virginia_'
'Uhr_'
'Face'
'Auf_'
'), '
'untouched_'
'terrasse_'
'sign'
'scru'
'menudo_'
'kit'
'kam'
'grave'
'abso'
'Tako'
'Root_'
'Meats_'
'Beverly_'
'inhal'
'dab_'
'contracts_'
'atta'
'Levi'
'Driving_'
'Curr'
'waves_'
'où_'
'optic'
'kiddie'
'entri'
'bout'
'blues_'
'Ela'
'AF'
' !! '
'won'
'roc'
'lc'
'illness_'
'flipping_'
'dominate'
'diving_'
'adve'
'Leas'
':   '
'uniquely_'
'isolated_'
'Turn'
'Ricotta_'
'Rho'
'McK'
'8oz_'
'!\10;-_'
'unter_'
'tarian'
'scre'
'rw'
'prepa'
'necklace_'
'liche_'
'brat_'
'Penne_'
'PD_'
'Bolognese_'
'sist'
'rise'
'rights_'
'pleasurable_'
'offset_'
'mie_'
'kleine_'
'fulfilled_'
'destr'
'dess'
'SURE_'
'Pizzas_'
'Huevos_'
'Dick_'
'230'
'qualm'
'onai'
'nei'
'lap'
'hange'
'fatt'
'erma'
'edo'
'buster'
'brushes_'
'Nic'
'Mak'
'Lis'
'Harley_'
'Fritt'
'wholesome_'
'tataki_'
'sprinkl'
'rk_'
'prom_'
'organ'
'bria'
'arche'
'aid'
'Stin'
'Ox'
'Lill'
'*. '
' . . .'
'litter'
'internal_'
'gorge'
'conci'
'beating_'
'TW'
'Jamba_'
'Cooper_'
'Camb'
'Boc'
'will'
'misle'
'aste_'
'Wheel'
'Pim'
'Papa'
'Graz'
'Biggest_'
'speechless_'
'rocket_'
'ral'
'pn'
'leaked_'
'gels_'
'gauge_'
'disco'
'backup_'
'Royal'
'Hamachi_'
'vaccine'
'reich'
'glas'
'departments_'
'branches_'
'bos'
'Ummm_'
'Rum'
'MS'
'KBBQ_'
'75'
'unp'
'uneven'
'sided_'
'religio'
'rectang'
'rasc'
'mmmmm_'
'lieu_'
'kayak'
'grandm'
'explanations_'
'eggrolls_'
'educat'
'disliked_'
'capit'
'bin'
'KID'
'Joint_'
'Asa'
'yal'
'strategy_'
'shepherd'
'roni'
'onal'
'mw'
'humiliat'
'hoisin_'
'Turned_'
'Quarter_'
'Cost'
'wid'
'staircase_'
'squirt'
'pment'
'phrase_'
'patronage_'
'medley_'
'Veteran'
'Onions_'
'Monster_'
'Mic'
'Loca'
'Dine'
'violation_'
'shorte'
'rev'
'pawn_'
'judgment_'
'barn_'
'Sul'
'NES'
'Bug'
'Ay'
'..  '
'ska'
'aggravat'
'WI_'
'Perfection_'
'Mine'
'Element'
'Dat'
'Brat'
'vow'
'tain_'
'secluded_'
'rod'
'pretending_'
'nth'
'ibi'
'funk'
'esca'
'deposit'
'bc'
'SD_'
'Mann'
'Louie_'
'Kreme_'
'Has'
'Even'
'Cont'
'COST'
'Bran'
';)_'
'shuck'
'mark'
'lands_'
'izakaya_'
'demi'
'cube_'
'croquet'
'Willi'
'Mitt'
'23'
'!!!! \10;\10;_'
'waive_'
'turtle_'
'thick'
'porat'
'kleinen_'
'gaze'
'cellar_'
'Dick'
'30mins_'
'surre'
'putt'
'evaluation_'
'cooperat'
'commo'
'candid'
'cages_'
'Rangoon_'
'FT_'
'toni'
'tomatillo_'
'sap'
'rinse_'
'oric'
'meist'
'lard_'
'examination_'
'dst'
'cht'
'cheesecakes_'
'Sprint_'
'SPO'
'Popeyes_'
'zze'
'soufflé_'
'roles_'
'mirac'
'luster_'
'ima'
'ferti'
'consist_'
'Pom'
'McCarran_'
'McCa'
'Karl'
'ABOUT_'
'yness_'
'soll'
'preventi'
'pigg'
'dreaded_'
'corkage_'
'console_'
'cabs_'
'Sweet'
'Quan'
'Appliance_'
'Any'
'40th_'
'wiz'
'vo_'
'tig_'
'swipe_'
'sm'
'macadamia_'
'hn_'
'guten_'
'Sierra_'
'Ore'
'LB'
' )_'
'ま'
'ust_'
'tep'
'rman'
'pcs_'
'Kla'
'Illinois_'
'Dream_'
'Delta_'
'subscri'
'speciali'
'repo'
'reek'
'multitude_'
'hangs_'
'frank'
'eous'
'chandler_'
'anz'
'Tonkotsu_'
'Lindsay_'
'But'
'würde_'
'wor'
'whelm'
'ube'
'stance_'
'soupe'
'reservier'
'powered_'
'pes'
'game'
'expo'
'direkt_'
'bf'
'Summerlicious_'
'Mur'
'Lava'
'Kohl'
'Aussi'
'!!.'
' ;)\10;\10;_'
'toenail'
'rm_'
'restaura'
'lipstick_'
'halb'
'chickpeas_'
'bew'
'abysmal_'
'Safe_'
'RIS'
'Ivy_'
'Gallery_'
'GC'
'Cater'
'=)'
'.      '
'unappealing_'
'perusing_'
'mali'
'leap'
'intentions_'
'checker'
'MONTH'
'Jalapeño_'
'Chance'
'Botox_'
'--'
'!\10;\10;*'
'wiring_'
'succu'
'resources_'
'inse'
'hu_'
'frequen'
'cuss'
'chive_'
'THANKS_'
'Harvest_'
'Carnegie_'
'tty_'
'somethings_'
'smokes_'
'schmeck'
'salivating_'
'practicing_'
'invo'
'dor_'
'diligent_'
'cust'
'buff_'
'Yaki'
'Mill'
'Further_'
'Acura_'
'  _'
'undr'
'need'
'mango'
'liquid'
'Frites_'
'Bui'
'ssing_'
'shorten'
'flap'
'bber'
'Vege'
'Sui'
'trip'
'sob'
'rewarded_'
'kb'
'fillers_'
'fame_'
'cash'
'wayyyy'
'slippers_'
'rian_'
'prol'
'investigate_'
'ench'
'ema'
'Stell'
'CO_'
'COR'
'unwelcome_'
'tist'
'term'
'rect'
'porter_'
'ij'
'gifted_'
'deductible_'
'Verdict_'
'TIC'
'SHI'
'IDE'
'DISAPPOINT'
'CF'
'一'
'veil'
'shaker_'
'rier_'
'por_'
'obsession_'
'jog'
'echt_'
'av'
'Gate_'
'Carpaccio_'
'unfor'
'lichen_'
'donated_'
'boutiques_'
'Rest_'
'Move_'
'wit_'
'vien'
'take'
'plain'
'pistachios_'
'ortho'
'boulder'
'vindaloo_'
'sia'
'philosophy_'
'pallet_'
'introducing_'
'heights_'
'filets_'
'Select'
'SN'
'Parti'
'OVER'
'.\10;   _'
'!)\10;'
'plat_'
'pick'
'mock'
'lage'
'istic_'
'implement'
'einge'
'ei_'
'audi'
'Gang'
'Bour'
'10min_'
'wiper'
'uma'
'swel'
'rn'
'rmo'
'hö'
'exorbitant_'
'crystals_'
'badge'
'aches_'
'Lit'
'Deco'
' ---'
'zoo'
'stone'
'specialized_'
'salvage'
'patronizing_'
'optometrist_'
'mount'
'lob'
'kak'
'click_'
'Vega'
'Rox'
'specta'
'peaches_'
'onna'
'gods_'
'forewarned_'
'flaws_'
'files_'
'etr'
'buck'
'ari_'
'admi'
'addressing_'
'Woo_'
'ENTIRE_'
'sbo'
'meat'
'kitt'
'girly_'
'fresco_'
'dick_'
'builder_'
'alter_'
'Som'
'OG_'
'Nacho_'
'Hub_'
'GOT_'
'Ferr'
'starr'
'shavings_'
'matin'
'agg'
'....... _'
'vomiting_'
'sondern_'
'fuzzy_'
'commute_'
'beka'
'Ker'
'Indo'
'Had'
'Brett_'
'uned'
'nm'
'luscious_'
'liner_'
'deta'
'band'
'Rocks_'
'Geschmack_'
'Brit'
'vaping_'
'subt'
'shoddy_'
'ramp_'
'provin'
'notre_'
'iki_'
'Remo'
'Batter'
'pigeon'
'painter'
'disrespected_'
'XL_'
'Rollin'
'Read'
'Meet'
'Foc'
'%, _'
'wagon_'
'tortas_'
'shove_'
'prizes_'
'offense_'
'mpt'
'merit'
'lobsters_'
'kong_'
'frown'
'cut'
'crip'
'cani'
'TER_'
'Shak'
'Oakville_'
'Ing'
'Gyoza_'
'Dio'
'Dead_'
'Count'
'Admi'
'yup_'
'stub'
'shock'
'rma'
'propri'
'poison'
'omen'
'macht_'
'jer'
'delis'
'consumers_'
'bast'
'EF'
'Doub'
'   '
'udi'
'theft_'
'proclaimed_'
'preo'
'perv'
'keg_'
'justifi'
'embrace'
'chewi'
'arde'
'Alamo_'
'ANYWHERE_'
'transition'
'tate_'
'piqu'
'orl'
'kne'
'kli'
'goto_'
'gooooo'
'cheeseburgers_'
'bias_'
'Vincent_'
'Pop'
'Bry'
'urina'
'tending_'
'swoo'
'save'
'sauber_'
'ong'
'laces_'
'jell'
'haggis_'
'Veni'
'Roug'
'Recommendation'
'Notice'
'Freshly_'
'38'
'grandson_'
'geschmack'
'facil'
'WHO_'
'Jod'
'Fea'
'Expect'
'EY'
'Bowl'
'winners_'
'iac'
'gog'
'earl_'
'correct'
'bingo_'
'treadmills_'
'meg'
'leve'
'insu'
'foli'
'dain_'
'cord_'
'amou'
'Suppe'
'Strong_'
'Fe_'
'?"'
'    '
'slack_'
'sche_'
'reli'
'ote_'
'offend'
'nti_'
'inhaled_'
'croquettes_'
'bim'
'bartend'
'Ric'
'Feeling_'
'Bleu_'
'Beh'
'Bed'
'react'
'price'
'oci'
'now'
'iano_'
'helm'
'focuses_'
'Robbi'
'preserved_'
'mü'
'iger'
'exchang'
'apol'
'SEC'
'Panc'
'Margar'
'Bisque_'
'yw'
'urri'
'trapped_'
'torched_'
'tica'
'society_'
'motion'
'leek_'
'elegance_'
'competiti'
'chut'
'acti'
'Tag'
'Princess_'
'Porc'
'Daughter_'
'Box'
'ype'
'unload_'
'soju_'
'kim_'
'fifty_'
'curt_'
'choke_'
'Vegetables_'
'TOM'
'Pistachio_'
'Milan'
'Lak'
'Favo'
'DEAL'
'48'
'*\10;_'
'ully_'
'revis'
'ramb'
'pretens'
'ores'
'nod'
'Soooooo'
'Reading_'
'Plant'
'ET_'
'Dane_'
'wrinkle'
'websites_'
'rotated_'
'oge'
'nung_'
'montreal_'
'mei'
'ien_'
'Pamela_'
'Kings_'
'Evi'
'Eine_'
'Crunchy_'
'Cook_'
'5min'
' :'
'ulate'
'tics_'
'stud'
'sadde'
'proudly_'
'interview'
'Spice'
'Saut'
'DONE_'
'.  :)_'
'tai_'
'resembles_'
'ohh'
'hätte_'
'grill'
'crush_'
'abr'
'Stadium_'
'Conve'
'thighs_'
'panko_'
'inv'
'founded_'
'cavity_'
'Member'
'Judg'
'stench_'
'rto'
'rita'
'pb'
'memo'
'fis'
'extravagant_'
'curl_'
'climbe'
'Scallop_'
'RSE'
'Pre_'
'Cone'
'xin'
'relocati'
'rall'
'proce'
'minu'
'discouraged_'
'cine'
'alaya'
'Ut'
'Très_'
'Floor'
'Corn'
'Bread'
'unsatisf'
'uninterested_'
'tery_'
'smiley_'
'shell'
'representatives_'
'pist'
'kills_'
'inferior_'
'cale'
'Vince_'
'Kos'
'Hudson_'
'HT_'
'.*'
'ém'
'stainless_'
'soaps_'
'saturated_'
'recomend_'
'ona'
'kind'
'hhhhh'
'formula_'
'drained_'
'counsel'
'attracted_'
'Curt'
'18th_'
'sizable_'
'produce'
'minimalist_'
'listi'
'gender_'
'gemütlich_'
'dyed_'
'defe'
'VC'
'Findlay_'
'Blond'
'は'
'weeds_'
'tong'
'sof'
'reporting_'
'prospect'
'preis'
'ming'
'instinct'
'expansion_'
'eable_'
'consci'
'Sterne_'
'Ew'
'Edge_'
'Camp_'
'After'
'.!!'
'$, _'
'tick'
'sod'
'forbid_'
'Yummmm'
'Vig_'
'LVAC_'
'Gravy_'
'Christi'
'Artichoke_'
'ASS'
'***\10;'
'walle'
'twe'
'lust'
'hive'
'gowns_'
'downs_'
'catalog'
'awsome_'
'ahold_'
'\10; \10;_'
'Rye_'
'Heidi_'
'Adams_'
'!?! '
'! \10; '
'tans_'
'passi'
'handicap_'
'ensi'
'embarrassment_'
'commande'
'bie'
'barr'
'Samosa'
'Forever_'
'mitt'
'huge'
'flashy_'
'Quesadilla_'
'Fred'
'50s_'
'unmatched_'
'squat'
'sniff'
'principle_'
'ngu'
'neighborhoods_'
'ibl'
'handicapped_'
'graduate_'
'googled_'
'cer_'
'bloom'
'Squirrel_'
'Mmmmmm'
'Mittags'
'GH_'
'(?) _'
'zzo_'
'secrets_'
'pane'
'oom'
'là_'
'lings_'
'figs_'
'fiancée_'
'correction_'
'Hers'
'ADD'
'03_'
'violent'
'oon'
'lette_'
'iko_'
'compromise_'
'bases_'
'ale'
'Robuchon_'
'Pati'
'AAAA'
'vist'
'tu_'
'schein'
'nect'
'ication_'
'glan'
'dence'
'Nor_'
'Neil_'
'Nach_'
'Lately_'
'utilized_'
'rage'
'itze'
'Tropical_'
'Ghost'
'Bah'
'rü'
'repas_'
'ilt'
'germ'
'forgiv'
'cement_'
'books'
'Fund'
'Check'
'Cali'
'Burgh_'
'ffic'
'dosa'
'criteria_'
'burr'
'Nov'
'Miguel_'
'Histor'
'GR'
'Community_'
'Arb'
'?! \10;\10;_'
'umn_'
'seperate_'
'intell'
'crowns_'
'alien'
'VS'
'Thurs_'
'wart'
'via'
'tia'
'baguettes_'
'alou'
'VIS'
'Ther'
'Tage'
'Smash_'
'Opening_'
'Naturally_'
'HALF_'
'CHEESE_'
'zesty_'
'wro'
'sneak'
'grac'
'focusing_'
'délicieux_'
'deri'
'bedien'
'anth'
'TAL'
'Smashburger_'
'Prob'
'Peak_'
'Maur'
'Anne'
'stead'
'sensation_'
'sely_'
'sav'
'kings_'
'intér'
'inspect'
'dentistry_'
'citr'
'arter'
'\\/  '
'Fell'
'30PM_'
'sser'
'scrape_'
'landmark_'
'inh'
'dial_'
'dell'
'crate'
'chale'
'Herb_'
':  \10;'
' ). _'
'ycle'
'schm'
'pears_'
'ound_'
'nosh'
'nook_'
'mba'
'karaage_'
'clinics_'
'auss'
'Ulta_'
'SR'
'spoil'
'resembl'
'highl'
'fluff_'
'contrary_'
'bound'
'appreciates_'
'YAY_'
'Tow'
'Mike'
'Make'
'Hungry_'
'Hampton_'
'HELL_'
'queens_'
'panc'
'gori'
'ganache_'
'describes_'
'Pit_'
'!!!!  '
'rmi'
'perf'
'oiled_'
'mmy_'
'kiosks_'
'icle'
'heure'
'ential_'
'cycling_'
'Drai'
' ..... _'
' ...'
'seniors_'
'roulette_'
'predict'
'praises_'
'portabell'
'orm'
'nys'
'molten_'
'ido'
'hawaiian_'
'ghi'
'allen_'
'Sham'
'Hung'
'113'
'ça'
'zers_'
'yro'
'tie'
'tablet'
'ssed_'
'sail'
'passa'
'gegessen_'
'Tia'
'Satay_'
'Produ'
'Pric'
'EI'
'Cand'
'Bob'
'pi_'
'moldy_'
'exhausti'
'applica'
'RENT_'
'LIS'
'what'
'spectrum_'
'scores_'
'rence'
'kt'
'glac'
'Edg'
'!!!!!!!_'
'retaine'
'inis'
'hinte'
'dismay_'
'dise'
'curried_'
'MC'
'Luck'
'Knowledgeable_'
'Butcher_'
'04_'
' @'
'winds_'
'wild'
'selb'
'schma'
'duration_'
'bolt_'
'boar_'
'Sum'
'Kei'
'$)'
'wk_'
'toughe'
'slick_'
'serve'
'rival_'
'kimchee_'
'inos_'
'funnel_'
'copa'
'Wall_'
'Malt'
'Including_'
'Bomb'
'BON'
' +'
'。\10;'
'vana_'
'scop'
'numb_'
'loser'
'limit'
'jeep_'
'fren'
'envy_'
'discontinued_'
'crisps_'
'Rag'
'NK'
'Mickey_'
'Marina'
'Level_'
'Confi'
'Chang'
'??)'
'"  '
'unusually_'
'tipsy_'
'service'
'nam'
'modifications_'
'inefficient_'
'hormone'
'gari'
'Linguin'
'Dale_'
')-'
'yri'
'wipes_'
'tight'
'reuben_'
'orat'
'massaging_'
'employer_'
'chickpea_'
'avant_'
'Utah_'
'Therapy_'
'DELISH_'
'Acti'
'tale_'
'mascarpone_'
'haze'
'flash'
'champion'
'bearable_'
'Wright_'
'Tag_'
'Fift'
'Culinary_'
'Compa'
'BEE'
'races_'
'patt'
'panda_'
'musty_'
'mold'
'kleine'
'interes'
'identif'
'Speciali'
'Penny_'
'Cons'
'Brea'
'Bei_'
'ón_'
'promotional_'
'nio'
'lma'
'irs_'
'hang'
'grub'
'colada_'
'butterscotch_'
'ancho'
'Sco'
'Scam'
'Neu'
'Buster'
'. . '
'sous_'
'shield'
'hound_'
'fool'
'fever_'
'effi'
'come'
'Self_'
'Roll'
'Klein'
'Crossfit_'
'Chen'
'teste'
'shrug'
'scorpion_'
'pearl_'
'nte'
'motivat'
'mixologist'
'infus'
'flavourless_'
'ento'
'FRO'
'Anne_'
'Alexis_'
'.....'
'étaient_'
'ros_'
'lev'
'influ'
'greet'
'gefü'
'eren'
'dur'
'Killer_'
'Cup'
'Clear'
'Cass'
'COL'
'uing_'
'snowb'
'promote'
'piss'
'ggle'
'crêpe'
'chang'
'aback_'
'\\/\10;'
'Vaughan_'
'STAFF_'
'FRI'
'')'
'!.'
'struct'
'solv'
'rred_'
'pomme'
'flaw_'
'ethical_'
'essentials_'
'ej'
'correspond'
'angus_'
'LEAST_'
'Gem'
'Found'
' - \10;'
'smoother_'
'page'
'nier_'
'merk'
'komp'
'insect'
'emphasize_'
'dry'
'Mack'
'Days_'
'tama'
'stewed_'
'splendid_'
'infested_'
'iconic_'
'VEG'
'Twe'
'Samsung_'
'SERV'
'Ful'
'Chap'
'veness_'
'safer_'
'onat'
'observe_'
'fundido_'
'erinar'
'andere_'
'Specials_'
'FAIL_'
'uf_'
'testament_'
'rz'
'powering_'
'peac'
'mysterious_'
'musste'
'hne'
'exceptions_'
'epti'
'Stephen_'
'Punk'
'.  \10;-'
'surround_'
'scooter_'
'olet'
'mouthful_'
'kitchens_'
'divers'
'definitiv'
'daddy_'
'beig'
'Hoping_'
'Fr'
'BS'
'!!!  '
' :). _'
'ué'
'sville_'
'snarky_'
'mys'
'klass'
'inal_'
'fucke'
'deut'
'dab'
'brighten'
'bay'
'Strange_'
'Kept_'
'Ges'
'DOU'
'write'
'undoubtedly_'
'ssy_'
'operates_'
'hub'
'extend'
'album_'
'Veggies_'
'Judy_'
'Flas'
'Celebrat'
',   _'
' (!)'
'vant'
'steered_'
'savo'
'respi'
'pix'
'peppered_'
'frog_'
'cres'
'centered_'
'butterfly_'
'aw_'
'accidents_'
'Forgot_'
'FEE'
'Bureau_'
'?!?!?!'
'wra'
'ord_'
'notices_'
'gaw'
'fes_'
'enter'
'constructed_'
'chocolat_'
'blos'
'Tap_'
'Mont_'
'Floren'
'Boss_'
'Allison_'
'ätzl'
'ym'
'thir'
'swapped_'
'lazi'
'itude_'
'instagram_'
'ashe'
'uro_'
'uan'
'syn'
'software_'
'rdin'
'oma_'
'lowe'
'haddock_'
'beso'
'ako'
'Taqu'
'HAN'
'rving_'
'rno'
'plank'
'open'
'nem'
'mise'
'mindful_'
'kun'
'illo_'
'helicopter_'
'ginger'
'Treat'
'Sound_'
'Know_'
'Automotive_'
'zt'
'strate'
'pearls_'
'obstacle'
'laughable_'
'laps_'
'gegen'
'fach'
'crispiness_'
'congratulat'
'amin'
'Zar'
'Dives_'
'Collision_'
'73'
'tuesday_'
'toi'
'school'
'represents_'
'prefers_'
'nish'
'mun'
'mopp'
'fort_'
'digesti'
'deducted_'
'Norma'
'Cibo_'
'Boul'
'4x'
'. \10;\10;*_'
'hardwood_'
'bury_'
'bitterness_'
'adjoining_'
'Terrace_'
'Sue_'
'Stac'
'Keep'
'Jet_'
'ITS_'
'HM'
'Gian'
'CRE'
'?".'
'vv'
'topless_'
'rer'
'relevant_'
'preg'
'poulet_'
'liat'
'dreadful_'
'disgrace_'
'concentrate_'
'Trio_'
'Epi'
'Cop'
'Chamb'
'?''
')\10;'
' = $_'
'victim_'
'uninte'
'sponsor'
'pau'
'ose_'
'nali'
'jade'
'har_'
'Sud'
'Mah'
'East'
'Cabernet_'
'. :(_'
'wand'
'swarm'
'rda'
'neu'
'mist_'
'filipino_'
'eut'
'cule_'
'cosm'
'conc'
'Ven'
'Cano'
'verbal_'
'rke'
'pedic'
'meri'
'gge'
'fingerling_'
'aesthetics_'
'UTE'
'Sr'
'Pica'
'LCD_'
'Homes'
'Hoc'
'Herr'
'yl_'
'rancid_'
'nori_'
'ias_'
'habits_'
'footage_'
'complex'
'chilling_'
'belongs_'
'Touch_'
'Fly'
'Echo_'
'Dub'
'Beth_'
'Act'
'ABLE_'
'strip'
'scar_'
'savour'
'renewal_'
'quad'
'practitioner_'
'indulgence_'
'flowe'
'edit_'
'compre'
'Tortilla_'
'Toro_'
'Heal'
'Hale'
'wil'
'ught_'
'tob'
'passe'
'paar_'
'midd'
'esses_'
'bett'
'amaz'
'WORK_'
'Tod'
'Ll'
'Daz'
'CALL_'
'î'
'therm'
'spank'
'secured_'
'obtain'
'msg_'
'marker'
'ird'
'icul'
'fixin'
'erine_'
'casi'
'brisk'
'ares_'
'appi'
'trave'
'toaster_'
'sunlight_'
'occ'
'live'
'disgust_'
'TRE'
'Roller_'
'Greeted_'
'BAR'
'... "_'
'wert'
'tize'
'teak_'
'photographs_'
'oft_'
'oak'
'hargi'
'box'
'WR'
'Vinn'
'Scoo'
'It'
'Ik'
'Fran_'
'EDM_'
'Closed_'
'sock'
'sanitation_'
'recie'
'ln_'
'help'
'ghe'
'fiber'
'chestnut'
'announce'
'adequately_'
'Wea'
'EB'
'BAN'
'stein'
'siti'
'requiring_'
'lear'
'indulgent_'
'bez'
'Hw'
'.\10;       '
'rocke'
'renewed_'
'pare'
'mesmeriz'
'hyg'
'hostile_'
'essa'
'enst'
'disbelief_'
'Xi'
'Stev'
'Phone_'
'DAMN_'
'Airways_'
'zw'
'zm'
'stero'
'sooooooo_'
'reimburse_'
'paint'
'nah'
'erge_'
'ella'
'defi'
'circl'
'chimi_'
'Conveniently_'
'97_'
'ttering_'
'traditionally_'
'rst_'
'reat'
'numbing_'
'ill'
'assa'
'Olives_'
'Kellner_'
'Gat'
'Escape_'
'Acco'
'!!!) _'
'triangle'
'trade'
'palatable_'
'nevertheless_'
'llen'
'flawlessly_'
'dual_'
'clues_'
'acle'
'Scot'
'Sad'
'Oriental_'
'NW_'
'Hunt'
'Gordo_'
'Ern'
'Chapel_'
'trust'
'misunderstanding_'
'functions_'
'entrances_'
'eng_'
'\10;\10;\10; _'
'Variety_'
'Teppan'
'Seats_'
'REP'
'King'
'Kilt'
'Jale'
'Import'
'Human'
'Freed'
'CES_'
'!)._'
'yas'
'verse'
'strolling_'
'stretches_'
'shooters_'
'screening_'
'pediatrician_'
'inar'
'inability_'
'anis'
'Steelers_'
'Habit'
'Ever'
'BRO'
'11th_'
' .  '
'も'
'shwarma_'
'rotat'
'rand'
'oko'
'ios_'
'holic'
'eur'
'coolant_'
'authority_'
'actu'
'SPA'
'Rum_'
'Know'
'Kari'
'Eglinton_'
'Dip'
'Brake'
'Bori'
'seedy_'
'rof'
'llll'
'digit'
'bead'
'accou'
'Syr'
'Sty'
'LGO_'
'Fresh'
'Ceasar_'
'Buc'
'Blood_'
'39'
'taker_'
'portrait'
'playlist_'
'insig'
'ffi'
'discriminate'
'bai'
'anyhow_'
'Sprinkles_'
'Sedona_'
' !!!\10;'
'unlocked_'
'trac'
'surf'
'smallish_'
'quiri'
'pric'
'para_'
'neutral_'
'evaluate_'
'enemy_'
'Reis'
'Forest_'
'prison_'
'physic'
'ooo_'
'offs_'
'mural_'
'lyn_'
'know'
'intent'
'compensated_'
'aise_'
'Product'
'Priceline_'
'Flavorful_'
'Cheesesteak_'
'Border_'
'Blues_'
'Barely_'
'Amb'
''!'
'vege'
'tling_'
'tel'
'rendered_'
'negligen'
'grie'
'auße'
'WIFI_'
'UU'
'Smi'
'Rubio'
'Kum'
'Beet_'
'53_'
'20s_'
'2004_'
'presumably_'
'premier_'
'frys_'
'deo'
'credited_'
'condo'
'cogn'
'aunt'
'Fancy_'
'Char_'
'tex_'
'tag'
'sympathetic_'
'sleeves_'
'ello_'
'eci'
'cue'
'Shot'
'Seren'
'Lawrenceville_'
'Ingredients_'
'Copper_'
'?!?!'
'unwelcoming_'
'schmeckt_'
'releas'
'raf'
'incentive_'
'browsed_'
'asc'
'Inco'
'Century_'
'!!). '
'weit'
'vorh'
'spät'
'peak'
'gimmick_'
'experi'
'convert_'
'apa'
'SCO'
'Capri'
'zus'
'vai'
'root'
'hef'
'grinding_'
'ghten'
'furnace_'
'cartoon'
'anni'
'Serving_'
'Seated_'
'NONE_'
'Cinema'
'tame'
'suburbs_'
'sear'
'outweigh'
'möchte_'
'liste'
'improper'
'fought_'
'Urgent_'
'Rehab_'
'McDowell_'
'Jal'
'Frühstück'
'Foot_'
'Congee_'
'. .. _'
'welche'
'uro'
'raison'
'liter_'
'jos'
'film'
'deal'
'ddle_'
'choco'
'Spacious_'
'RESTAURANT_'
'LOC'
'Hurr'
'Firehouse_'
'Fairmo'
'Devil'
'Andre_'
'sanit'
'reheat_'
'mamm'
'leches_'
'fuls_'
'flaming_'
'certificates_'
'bes_'
'baths_'
'\10;$_'
'Gor'
'Frost'
'Cauliflower_'
'ww_'
'syrups_'
'hua'
'combin'
'brun'
'allo'
'Petsmart_'
'ute_'
'shaping_'
'paycheck_'
'knacks_'
'deserted_'
'cush'
'burner'
'amar'
'Schu'
'Mob'
'Milli'
'Bright_'
'tablespoon'
'investigat'
'ingr'
'graceful'
'erte'
'erson_'
'crusts_'
'compl'
'comedians_'
'collect'
'allé'
'akin_'
'aille'
'Lang'
'Javier_'
'Disclaimer_'
'!!!!!\10;\10;_'
'ô'
'trop'
'timel'
'pediatric'
'ologi'
'nce'
'measly_'
'ial'
'flirt'
'crou'
'crispe'
'anticipate_'
'aine_'
'Trou'
'Tara_'
'TEL'
'Paul'
'Mattress_'
'tourn'
'tali'
'suffic'
'shareable_'
'rket_'
'ras_'
'erge'
'déco'
'douch'
'buried_'
'beau_'
'Med'
'Cardinal'
'tradition'
'simultaneously_'
'road'
'ori_'
'nutritional_'
'mem'
'horse'
'fella_'
'eche'
'chuck_'
'Play_'
'Physic'
'tens'
'scro'
'scarf'
'earn'
'Jiffy_'
'Dona'
'tary_'
'slippery_'
'pez'
'lovin'
'enade_'
'ceasar_'
'atur'
'argument'
'aret'
'Talking_'
'Retr'
'Pretzel_'
'PT'
'Mina_'
'Aa'
'yz'
'teuer'
'tact'
'shockingly_'
'sais'
'knob'
'heim'
'commend_'
'captiv'
'balayage_'
'\10;~'
'Tz'
'Belle_'
') "_'
'ired_'
'interrupt_'
'boa'
'barking_'
'aver'
'Guu_'
'Gets_'
'terminat'
'superb'
'logist_'
'elde'
'crispier_'
'chard'
'Titan'
'Miles'
'MINUTES_'
'Earl'
'Dist'
'Blossom_'
'Among_'
'86_'
'speech_'
'nings'
'furnished_'
'REN'
'Danc'
'Clean'
'ANT'
'wimp'
'underc'
'unclea'
'ube_'
'taped_'
'shooter_'
'scorch'
'reorder'
'fixture_'
'express'
'borrow_'
'ail_'
'adventures_'
'YS'
'Neapolitan_'
'Domino_'
'.\10;\10;--'
'zipp'
'xy_'
'wür'
'twelve_'
'seme'
'sake'
'playful_'
'fold'
'disc_'
'\u\u'
'Olivi'
'Oak'
'Drew_'
'( '
'tter_'
'sicht'
'repaint'
'loat'
'gasp'
'font_'
'flashing_'
'elt'
'ctua'
'bellies_'
'avacado_'
'ROOM_'
'MV'
'Cond'
'Carrie_'
'spat'
'ives_'
'itr'
'helpful'
'chocolatey_'
'certain'
'anger'
'Ceas'
'1hr_'
' \u'
'én'
'thaw'
'ships_'
'reopened_'
'pump'
'misf'
'marginal_'
'gloss'
'discharge'
'carpeting_'
'blaming_'
'ammen'
'Zip'
'Wildf'
'Warr'
'DISGUSTING_'
'Advi'
'uuu'
'relo'
'redne'
'prese'
'exa'
'aime'
'Person'
'Filiberto'
'ELSE_'
'Apr'
'?!! '
'yummie'
'sizing_'
'cluster_'
'GN'
'Container_'
'Ca_'
'Bee_'
'Attend'
'waste'
'vir'
'ulation'
'sey_'
'rias_'
'puff'
'omm'
'oes_'
'letdown_'
'indu'
'hehe_'
'discourage_'
'deplo'
'craftsmanship_'
'cove'
'chees'
'buzzer_'
'Needs_'
'Mez'
'Anywho_'
'! ='
'warranted_'
'unwanted_'
'unch'
'thirst_'
'reconsider_'
'liegt_'
'int_'
'blink_'
'aled_'
'Simp'
'Molly_'
'JOB_'
'Early_'
'CN'
'Blanco_'
'slan'
'maneuver_'
'hoch'
'chilis_'
'astic'
'Wave'
'SA_'
'Candi'
'telle'
'bore'
'belie'
'Sichuan_'
'Reserve'
'manche'
'lotions_'
'leaf'
'jello_'
'find'
'extraction_'
'excellent'
'devoted_'
'cular_'
'conversational'
'brai'
'accent'
'Call'
'Bere'
'üch'
'ural'
'ua'
'scarce_'
'presentations_'
'podi'
'org'
'mentions_'
'lete'
'less'
'ieu'
'fores'
'creamer_'
'cial'
'Sally_'
'RC_'
'Paper_'
'Kris_'
'Consu'
'Associate'
'yad'
'tual'
'topic_'
'shim'
'pst'
'notif'
'ngi'
'hung'
'hers'
'fä'
'dilute'
'delicately_'
'casing_'
'Wald'
'WHEN_'
'TA_'
'Neg'
'Beach'
''. '
''.'
'# _'
'ör'
'trail'
'responsi'
'mming_'
'ffin'
'directing_'
'breed'
'TRI'
'SMO'
'Poli'
'INE'
'Flowers_'
'Coc'
'toned_'
'sayin_'
'iet'
'flood_'
'extrem'
'drums_'
'busse'
'ZZ'
'Placed_'
'Mexican'
'LARGE_'
'Buca_'
'Bras'
'weitere'
'swept_'
'swea'
'surpass'
'squir'
'snobs_'
'conversi'
'consol'
'ato_'
'SOOOOO'
'Driver_'
'undergo'
'ule_'
'tolera'
'ppin'
'mg'
'leane'
'inspections_'
'goo_'
'collector'
'Muffin'
'Ferrar'
'Carte'
'wolf'
'uct'
'trampoline'
'thieves_'
'talle'
'recu'
'pose'
'lint'
'haunt_'
'ghan'
'deducti'
'bear'
'UNC'
'Pomo'
'List_'
'Les'
'tyl'
'punk'
'ist'
'golfer'
'Zoe'
'Stag'
'Ohhh'
'Excited_'
'Anc'
'worrying_'
'waving_'
'valentine'
'teas'
'sue_'
'spu'
'sopa'
'reopen'
'jeweler_'
'horizon'
'exhibition'
'cker_'
'Sheraton_'
'RL'
'Puck_'
'Cupcakes_'
'Chowder_'
'Bh'
'sewage_'
'rre'
'ought_'
'lette'
'late'
'lais'
'healed_'
'devil_'
'chilli'
'cai'
'bodi'
'biss'
'Kai_'
'ETA'
' ? '
'unrea'
'spun'
'polar'
'permit_'
'mst'
'jim'
'gg_'
'fab'
'averag'
'ancient_'
'SERIOUSLY_'
'PD'
'verst'
'tha_'
'rog'
'enca'
'dista'
'dew_'
'carri'
'WAS'
'PE_'
'Maj'
'Dob'
'?!?!?'
'tomat'
'swer'
'surgeries_'
'slut'
'quat'
'prendre_'
'pina_'
'overflow'
'oben'
'kul'
'haul'
'has'
'gelatin'
'eal_'
'chez_'
'blossom_'
'artful'
'administrati'
'ached_'
'Request'
'Rental_'
'Pus'
'Mg'
'ION'
'Cuban'
'Bridge_'
'Bikram_'
'240'
',\10;'
'wet'
'stick'
'smear'
'slid_'
'nati'
'lest'
'hardworking_'
'disclaimer_'
'brit'
'accompaniments_'
'Wit'
'Sag'
'Plum'
'PIC'
'Obs'
'Hone'
'Frau'
'EZ'
'Changs_'
'ward'
'veterinarian_'
'uncomfortably_'
'structure'
'rafte'
'pinto_'
'personne'
'nell'
'nde_'
'goose_'
'gast'
'fahr'
'erre'
'diabetic_'
'connections_'
'beads_'
'Flying_'
'Fargo_'
'Dressing_'
'Albertsons_'
'197'
'verd'
'ttt'
'tall'
'pronounce_'
'pinn'
'ons'
'nursery_'
'ncin'
'incons'
'incl'
'eag'
'clippe'
'barke'
'aim_'
'Rack_'
'Morgan_'
'Gig'
'CARE_'
'. :( '
' .......'
'simpli'
'oe_'
'essayer_'
'devastat'
'bilities_'
'RIO'
'Ill'
'Churr'
'CHAN'
'24hrs_'
'不'
'vent'
'quelques_'
'popp'
'lunch'
'jab'
'finde_'
'categories_'
'boss'
'Freemont_'
'Arepa'
'33'
'taqu'
'swamped_'
'pointless_'
'plugged_'
'ident'
'finance'
'elier_'
'chev'
'calm'
'Sap'
'Fuku'
'Bride'
'Ana_'
'+\10;'
'warme'
'vis'
'tern'
'sian_'
'richt'
'rais'
'prompt'
'proactive_'
'mpy_'
'litera'
'iri'
'ges'
'fulle'
'can'
'STOP_'
'Real'
'Impressive_'
'DELI'
'CN_'
'BT'
'??!'
'rgot'
'morsel_'
'frosted_'
'flame'
'eyeli'
'auti'
'arrow'
'afe'
'Hmmmm'
'Goose_'
'Baby'
'wage_'
'unseasoned_'
'southwestern_'
'resemble_'
'poe'
'pedal'
'messe'
'gravit'
'fehl'
'ational'
'Trev'
'THER'
'Reve_'
'Mais_'
'Bec'
'stumbling_'
'smug'
'right'
'resol'
'recr'
'nos'
'expenses_'
'carryout_'
'botched_'
'bas_'
'Toppings_'
'Sir_'
'Nasty_'
'Definit'
'Cleve'
'Baba_'
'Australian_'
'36'
'witch_'
'staycation_'
'statements_'
'rebuil'
'pir'
'owning_'
'drop'
'astounding_'
'Sis'
'Link_'
'Chia'
'Chal'
'Atlantic_'
'thingy_'
'soil'
'rangoon_'
'pes_'
'natürlich_'
'cockroaches_'
'bets_'
'athletic_'
'UE_'
'SC_'
'Ossington_'
'Ira'
'$$$'
' :)'
'usness_'
'uch_'
'retai'
'plai'
'hone_'
'dumpster_'
'devo'
'confidently_'
'browned_'
'acidity_'
'LATE'
'Kayla_'
'Cabo_'
'CLA'
'......\10;'
'truffled_'
'survived_'
'rä'
'renters_'
'pushes_'
'lineups_'
'lease'
'ek_'
'big'
'UT_'
'Thom'
'Lyft_'
'Claim'
' (#_'
'！_'
'wl'
'upl'
'techno_'
'savvy_'
'petty_'
'modified_'
'max'
'follow'
'fires_'
'estimat'
'contamination_'
'civi'
'Writ'
'OOOOO'
'Manc'
'Fajitas_'
'Coli'
'Afr'
' ....._'
'unca'
'soir'
'shutters_'
'reacti'
'racti'
'poki'
'oid_'
'humo'
'crea'
'anim'
'Surf_'
'Biryani_'
'tracked_'
'sten'
'porn_'
'nud'
'flour'
'exiting_'
'ersten_'
'complements_'
'THA'
'Stack_'
'Buns_'
'Aid_'
'Adult'
'Adrian_'
'?!" '
'tg'
'poon'
'ool_'
'lace'
'jackpot_'
'gain'
'flatbreads_'
'firearms_'
'circum'
'\10;**'
'Watching_'
'Wars_'
'Tip'
'Oak_'
'Mello'
'Masters_'
'Hole_'
'FAC'
'Dee'
'DIN'
'." \10;'
'zei'
'tra_'
'tingly_'
'tenderness_'
'orden'
'cr'
'cep'
'Wont'
'Sunny_'
'Squid_'
'Fresc'
'Cycle'
'AH_'
'ucat'
'tf'
'shuffle_'
'satisfies_'
'reunion_'
'py'
'nev'
'nehmen_'
'matte'
'leadership_'
'lante'
'haz'
'escalators_'
'dynamic_'
'canvas_'
'berate'
'abor'
'Saf'
'Izakaya_'
'Hauptg'
'Butterf'
'Billi'
'BEAUTIFUL_'
'zahl'
'jen'
'grun'
'demo_'
'additi'
'TAN'
'Sie_'
'Minne'
'Bib'
'175_'
'smack'
'permitt'
'lookout_'
'lids_'
'junk'
'grat'
'flirting_'
'cann'
'burden_'
'adjusting_'
'^\'
'Watermelon_'
'Shave'
'HAS_'
'Checking_'
'BLO'
'!''
'wardrobe_'
'unres'
'umm_'
'suspicio'
'scat'
'rv'
'iag'
'environmental'
'balancing_'
'Rabbit_'
'Bath_'
'univers'
'unfinished_'
'twisted_'
'sively_'
'recall'
'feeds_'
'eeee'
'displeased_'
'appetites_'
'angl'
'Nike_'
'Follow_'
'EW_'
'ED'
'Angeli'
'American'
'sling'
'sharks_'
'recline'
'lifes'
'Strongly_'
'Lec'
'thri'
'tation_'
'spreading_'
'ont'
'horrified_'
'hardcore_'
'ela_'
'desc'
'creamie'
'cond'
'complet'
'bleache'
'assiette'
'YU'
'Turf_'
'TX_'
'Solo'
'Snack'
'Kristen_'
'HOL'
'Foodie'
'-\10;\10;_'
'urt'
'overpower_'
'kinder'
'jets_'
'aig'
'aficionado_'
'Whoa_'
'Stacey_'
'Spec'
'Slu'
'Ora'
'Mystere_'
'Lun'
'Corne'
'な'
'voir_'
'surp'
'produits_'
'juste_'
'gutes_'
'fabrics_'
'deg'
'crossing_'
'cancel'
'burgh_'
'broker'
'biscotti_'
'autom'
'Win_'
'Tische_'
'Round_'
'Press_'
'Mali'
'ña'
'virtu'
'umpt'
'substandard_'
'starch'
'osc'
'odor'
'kitten_'
'hea'
'harm_'
'crispness_'
'camar'
'aesthetician_'
'Yas'
'Sola'
'Nos'
'NCH_'
'Jab'
'Cele'
'wack'
'spraying_'
'pier'
'motivating_'
'lys'
'hay_'
'handc'
'Trop'
'Tos'
'TINY_'
'Storage_'
'EXTRA_'
'Burritos_'
'ères_'
'uo'
'tua'
'sigh'
'oki'
'loses_'
'displeasure_'
'discriminati'
'defect'
'cons'
'christmas_'
'blog'
'Tr'
'SMALL_'
'Nata'
'Jani'
'urg'
'such'
'street'
'limb'
'gums_'
'flatter'
'fication_'
'apron'
'Shish'
'Porsche_'
'Lux'
'Executive_'
'Bonnie_'
'62_'
'vinegary_'
'praye'
'oing_'
'mezz'
'glamorous_'
'found'
'dampe'
'cora'
'cisi'
'cannolis_'
'appa'
'Unlimited_'
'Understand'
'Rush_'
'Orga'
'Infinit'
'Enter'
'Bann'
'Bang'
'touch'
'sine'
'numbe'
'nent'
'ith'
'fav'
'disput'
'clove'
'cele'
'baffled_'
'WHOLE_'
'Too'
'Korea'
'.\10;\10;$_'
'spine_'
'spicey_'
'sei'
'planner_'
'lve'
'aggressively_'
'acknowledg'
'accord'
'SB'
'Provide'
'Pain'
'Natural_'
'Fourth_'
'Bisc'
'Ann'
'Alla'
'. \10;   _'
'sever'
'pt'
'dom_'
'americano_'
'XI'
'Winner'
'Pickle_'
'Per_'
'PART'
'GIVE_'
'EO'
'??'
'24th_'
'timeline_'
'substitut'
'rust_'
'mingl'
'exited_'
'ensu'
'donne'
'dami'
'blast'
'airplane_'
'acquaint'
'Pizza'
'20mins_'
'wunder'
'treme'
'playoff'
'ndle'
'life'
'koste'
'john'
'garde'
'counterpart'
'commenting_'
'cleans_'
'chasing_'
'aime_'
'Picture_'
'Lite'
'Italian'
'How'
'GRE'
'Facilit'
'yells_'
'remarkably_'
'oute'
'blood'
'Wonder_'
'Wilson_'
'Vene'
'Speisekarte_'
'Schwa'
'Marv'
'Iv'
'Hava'
'Feast_'
'. =)'
'pto'
'poll'
'korma_'
'kai'
'dramatically_'
'dir'
'ERE'
'?" \10;'
''\10;'
'zill'
'thriv'
'routes_'
'rehab_'
'emerge'
'adhe'
'Travel_'
'Noble_'
'FedEx_'
'!  :)'
'sassy_'
'reimbursed_'
'proves_'
'magician_'
'gush'
'gold'
'glanced_'
'flamingo_'
'durian_'
'Hann'
'Gamb'
'Belgium_'
'Bangkok_'
'slop'
'salat'
'rind'
'pounde'
'mailbox_'
'konnte_'
'gese'
'gant_'
'Option'
'Onto_'
'Capriotti_'
'CRO'
'Argentin'
'totaled_'
'tobacco_'
'snagged_'
'pte'
'meld'
'linen_'
'ishi'
'fa_'
'comp'
'cleans'
'board'
'Machine'
'yh'
'waiver_'
'tude_'
'trusive_'
'thrill_'
'supplier_'
'seldom_'
'pat_'
'ov'
'nov'
'maison_'
'inspire'
'etc'
'disguise'
'cm'
'bers_'
'bacteria'
'Shabu_'
'Regard'
'Mind'
'Explain'
'Apartment'
'tful_'
'perfect'
'mesh'
'hiccups_'
'eyeing_'
'ators_'
'administ'
'Sas'
'SPE'
'Rent_'
'Paella_'
'+++++'
'uge'
'stimm'
'spur'
'sitter_'
'scratching_'
'sardines_'
'rati'
'pennies_'
'operati'
'grosse'
'flats_'
'deck'
'Switch'
'Barber'
'730'
'.  \10;   '
'valua'
'supported_'
'recom'
'pelle'
'mean'
'kou'
'interc'
'housekeeper'
'flourless_'
'coordinati'
'Prim'
'Melanie_'
'Ink'
'Consi'
'Chimich'
'Brownie_'
'.)'
'vap'
'vada_'
'unfa'
'tuck'
'succeed'
'nip'
'mmmmmmm'
'lecture_'
'ironic_'
'haft'
'garnishes_'
'cold'
'bundle_'
'aways_'
'asp'
'Trip_'
'Tamale'
'Roma_'
'Porti'
'Pel'
'Ellis_'
'EDIT_'
'Cheape'
'AU'
'130'
'tib'
'sunk'
'summertime_'
'stair'
'proportion_'
'lier_'
'kidney_'
'conven'
'beach'
'autre_'
'USA'
'Sharon_'
'Shared_'
'John'
'II'
'CLU'
'öt'
'standouts_'
'rek'
'hourly_'
'electrician_'
'dirtie'
'delica'
'conne'
'affiliated_'
'Pris'
'Nee'
'March'
'HOO'
'Gel_'
'Angelo_'
'220'
').  '
'と'
'wk'
'remedie'
'prescrib'
'ombre_'
'oac'
'nette_'
'minated_'
'inquiring_'
'fta_'
'flam'
'conscientious_'
'cert'
'autograph'
'Whip'
'Steph'
'PIN'
'Davidson_'
'ATO'
'59'
'wom'
'lil'
'forum_'
'const'
'ciat'
'brutal_'
'accepts_'
'!!!!!!!!!!!!'
'|'
'yenne_'
'unnecessarily_'
'snake'
'ré_'
'retourner'
'pett'
'passer'
'notorious'
'große_'
'fran'
'erste'
'distant_'
'VIN'
'Sn'
'Ortho'
'Ket'
'Conce'
'Chevrolet_'
'????? '
'1950'
'themes_'
'seiz'
'seit'
'sali'
'posi'
'orn_'
'mber'
'inexp'
'expos'
'ction'
'ambient_'
'TOTALLY_'
'OPEN_'
'Massa'
'MADE_'
'Chardonnay_'
'"!!'
' : '
'sati'
'rumor'
'notification_'
'frat_'
'economical_'
'daikon_'
'choke'
'butt'
'amic'
'OWNER'
'More'
'DT'
'63_'
'verdict_'
'snipp'
'retailers_'
'pons'
'occurrence_'
'mehr'
'flautas_'
'diminish'
'dal_'
'croque_'
'carnival_'
'Palo'
'OWN_'
'OB_'
'Host_'
'Fish'
'Event_'
'EP_'
'.\10;--'
'urger'
'ntr'
'monstro'
'macchiato_'
'ged'
'dwi'
'downer_'
'Residen'
'Julian_'
'vitamins_'
'vegeta'
'uss'
'torture_'
'succ'
'percentage_'
'heads'
'flustered_'
'compr'
'backing_'
'\10;  _'
'McD_'
'Fuck_'
'Fil_'
' | _'
'vau'
'singles_'
'photographers_'
'moti'
'farm'
'eup'
'eque'
'ees_'
'demonstrated_'
'chewed_'
'arguably_'
'amen'
'Radio'
'Kansas_'
'Hubs_'
'Gou'
'Chim'
'........._'
'supplement_'
'sea'
'pittsburgh_'
'osit'
'myriad_'
'lene'
'labo'
'jersey_'
'inclusive_'
'elect'
'domino'
'corporation_'
'adorned_'
'Soc'
'Props_'
'NOR'
'LIC'
'Gard'
'Fud'
'Challenge_'
' ; _'
'theyre_'
'slamming_'
'sewing_'
'nnn'
'longt'
'hly_'
'fair'
'erc'
'environ'
'enr'
'eco_'
'arran'
'aria_'
'SIDE_'
'SEL'
'Pack'
'MES'
'Lil_'
'Just'
'Davis_'
'Cus'
'wou'
'shu_'
'routinely_'
'rio'
'palms_'
'meinen_'
'insul'
'gma'
'disl'
'disapoint'
'creek_'
'contemplating_'
'ando'
'Way'
'Nas'
'Bart'
'         '
'whatnot_'
'hobby_'
'gratitude_'
'classroom_'
'alla_'
'Wax_'
'Rain'
'Pasty_'
'Cau'
'Beds_'
'Aladdin_'
'1980'
'!! (_'
'  :'
'welcomes_'
'tick_'
'sness_'
'mingle_'
'iste'
'grossly_'
'gling_'
']_'
'Priest_'
'GY'
'Dé'
'Drag'
'Contact'
'Boca_'
'stati'
'recovering_'
'nun_'
'merg'
'liability_'
'just'
'hion'
'dige'
'cod'
'brats_'
'atric'
'antic'
'aching_'
'Sincerely_'
'Bie'
'! :-)'
'plusieurs_'
'oner'
'koo'
'envelope_'
'ddle'
'corridor_'
'bully'
'bragg'
'aign_'
'YYY'
'Start'
'Pho'
'Max'
'Ice'
'Gei'
'Artist'
' ,'
'sweats'
'rethink_'
'political'
'lotus_'
'jok'
'influenced_'
'infectio'
'hatch'
'dition'
'displa'
'cop_'
'carmelized_'
'bush_'
'bia'
'STAR'
'LD'
'Indians_'
'Horn'
'Electr'
'Duff'
'.\10;    '
'zwischen_'
'surfaces_'
'salade_'
'ptu'
'outp'
'deco_'
'condens'
'bum_'
'bras'
'Vall'
'Tivoli_'
'GEN'
'Edamame_'
'Aunt_'
'Audi'
'vre_'
'sturdy_'
'should'
'sett'
'poor'
'partie'
'participation_'
'nuo'
'livid_'
'licen'
'kim'
'gangs'
'fol'
'expire_'
'cabe'
'buri'
'afi'
'Yam'
'Trip'
'Squash_'
'Sab'
'Kol'
'Inde'
'.,'
'$$'
'zip'
'underrated_'
'shm'
'loca'
'incorporated_'
'gener'
'capa'
'alu'
'Taiwan_'
'Tail'
'Fazit_'
'Bia'
'930'
'ös'
'vore'
'tribute_'
'thum'
'refreshments_'
'perfected_'
'namel'
'logic_'
'friend'
'emptied_'
'breez'
'Workers_'
'Willo'
'Techn'
'Property_'
'Laser_'
'Emba'
'Bailey_'
'ART'
'nen'
'measures_'
'iyaki_'
'iler_'
'fals'
'chir'
'Wat'
'Tres_'
'Ster'
'SOOOO_'
'Now'
'Metro'
'Casi'
'spay'
'seit_'
'revolving_'
'park'
'headline'
'bha'
'bala'
'VAL'
'Horchata_'
'Fieri_'
'Excel'
'Cana'
'ziti_'
'torte_'
'spark_'
'regist'
'pens_'
'oca'
'nha'
'motivation_'
'lud'
'juggl'
'hospitals_'
'graduated_'
'Robinson_'
'Range_'
'Avo'
'67_'
'..!'
'xed_'
'twins_'
'tches_'
'spli'
'prepackaged_'
'plein'
'freely_'
'dank'
'ardi'
'MB_'
'Chefs_'
'Bubb'
'Answer'
'" ...'
'yummmm'
'universe_'
'summers_'
'step'
'ppa'
'orientat'
'jah_'
'hurri'
'ehouse_'
'beh'
'bastard'
'acha'
'Vintage_'
'SOO'
'Russell_'
'REFU'
'Pep_'
'Nicht'
'Kierland_'
'Install'
'Horse_'
'Bull_'
'AIR'
'users_'
'topper'
'seas'
'regr'
'intro_'
'gramm'
'gerade_'
'floats_'
'faut_'
'comi'
'caveat_'
'Gun'
'Gem_'
'BER'
'Aff'
'ument'
'talk'
'representing_'
'radia'
'outb'
'oran'
'midwest'
'considerable_'
'clear'
'chashu_'
'Surprised_'
'Stein'
'NEXT_'
'Barn'
'Arg'
'Alaska_'
';\10;'
' \10;\10;\10;'
'yield'
'whoop'
'unlock_'
'theatres_'
'sphe'
'shore'
'sg'
'roam_'
'predictabl'
'halt_'
'earns_'
'deceive'
'confrontation'
'chem'
'Vari'
'OO_'
'Morton_'
'Fili'
'Bike_'
'usion'
'serveur'
'scented_'
'rsi'
'nutritio'
'nightclubs_'
'modify_'
'memberships_'
'loi'
'gic'
'beha'
'attacked_'
'assess_'
'Toll'
'Steel'
'RK'
'Loaded_'
'Jam_'
'HOME'
'Film'
'Chompie'
'*  _'
'" \10;\10;_'
'wyn'
'witty_'
'volle'
'somme'
'place'
'pity_'
'orig'
'noteworthy_'
'mt_'
'mistakenly_'
'lumpy_'
'loooo'
'hum_'
'exec'
'dt_'
'chb'
'canad'
'bah'
'TABLE_'
'Pharmacy_'
'IPAs_'
'Gam'
'weav'
'vari'
'uncaring_'
'touring_'
'taster'
'stroke_'
'rait'
'pain'
'note'
'lass'
'kte'
'fines'
'distress'
'curs'
'cricket'
'asi'
'amusement_'
'Vic_'
'Pleasantly_'
'Independen'
'Honor'
'Groom'
'ât'
'yes'
'mane'
'grum'
'foo'
'folding_'
'excessively_'
'coh'
'bap_'
'Online_'
'HIGH'
'"!'
'ucti'
'solicit'
'pins_'
'overdr'
'increasing_'
'glued_'
'gie'
'gad'
'flor'
'coaching_'
'balle'
'TD'
'Nep'
'NGE'
'Mechanic'
'Farmers_'
'DVDs_'
'Catfish_'
'Avi'
'slivers_'
'ouse_'
'oule'
'inat'
'humus_'
'frighten'
'ased_'
'Lincoln_'
'Glob'
'Fut'
'Boom_'
'64'
'tant'
'sto_'
'sprint'
'spendy_'
'rel_'
'ply'
'pero'
'osi'
'kiwi_'
'ego_'
'douchebag'
'coolers_'
'bela'
'banne'
'Gul'
'Gin_'
'Croissant_'
'Cove'
'!!!.'
'tendo'
'sustain'
'slushie'
'sant_'
'mandarin_'
'knu'
'knick_'
'islands_'
'gram'
'demonstrati'
'Random'
'ROCK_'
'OI'
'Mano'
'Custom_'
'Craving'
'untr'
'swollen_'
'sipped_'
'scarf_'
'residue_'
'proba'
'organize_'
'opti'
'glut'
'excellently_'
'equals_'
'coup'
'compt'
'beefy_'
'SSE'
'Hold'
'Games_'
'sure'
'sammich'
'piri'
'overb'
'minor'
'lungs_'
'lung_'
'iga'
'abound'
'".   _'
'nting_'
'nsa'
'intact_'
'ining_'
'gart'
'flea'
'comprised_'
'ché'
'atic_'
'après_'
'aming_'
'Waitresses_'
'Tir'
'Pak'
'Hue_'
'Holstein'
'pis'
'ping'
'pebble'
'occupy'
'mau'
'igne'
'graphy_'
'dra_'
'affecti'
'.)  '
'!!! :'
'wan_'
'supervisi'
'ract'
'quoi_'
'presume'
'perce'
'mod_'
'mbled_'
'ipad_'
'interf'
'craze'
'cheesesteaks_'
'Rex_'
'Dora'
'BWW_'
'Appointment'
'830'
'xx'
'vered_'
'retire'
'reflecti'
'proportion'
'preview'
'onnai'
'mediterranean_'
'involves_'
'fies'
'Stew_'
'Shore_'
'Places_'
'Maga'
'Britt'
'52'
'!).'
'yuk'
'writer_'
'shish_'
'mishap_'
'mails_'
'kisse'
'insides_'
'foolish'
'disturb_'
'dia_'
'comprehen'
'alten_'
'Thin'
'Shower'
'Sav'
'Pab'
'Delmonico_'
'DRE'
'Cres'
'Bless'
'Aut'
'trea'
'prima'
'prepping_'
'poles_'
'establish'
'ental_'
'découv'
'coco_'
'captain_'
'atory_'
'advertises_'
'Maya'
'Happen'
'GHT_'
'Becky_'
'Baker_'
'°'
'vl'
'unsc'
'rewa'
'narr'
'jor'
'iris'
'imme'
'begged_'
'achte'
'Ticket'
'Stri'
'Odd_'
'Mount_'
'Monta'
'Cupcake_'
'Clips_'
'Chalet_'
'!!!!!!!! '
'supports_'
'sting'
'reci'
'ols'
'notar'
'murder'
'mead'
'jin'
'fti'
'copay_'
'cello'
'Guard'
'GRO'
'Einrichtung_'
'Cartel_'
'". \10;_'
'tsch'
'sketch_'
'ono_'
'ingen'
'hunte'
'goût_'
'dragging_'
'dit_'
'design'
'army_'
'VER_'
'Steer_'
'SUCK'
'Nois'
'waaaaa'
'vibrati'
'possibilities_'
'nial'
'nal'
'mares_'
'ffici'
'corns'
'callus'
'brides_'
'attendance_'
'Web'
'WON'
'Staying_'
'Protein'
'HONEST_'
'Gib'
'. \10;\10;"_'
'validate_'
'segment'
'michel'
'eg_'
'deceptive_'
'comical_'
'brittle_'
'auction_'
'Zipps_'
'Thre'
'Like'
'Innen'
'Bubble_'
'Borde'
'630'
'! !!'
'wy_'
'unsweetened_'
'schr'
'involve_'
'feas'
'calculate'
'backdrop_'
'Southe'
'Slaw_'
'. ;)_'
')\10;*'
'ume_'
'sta_'
'reminders_'
'peppermint_'
'inna'
'housew'
'eman'
'cand'
'banner_'
'Wer'
'Wartezeit'
'Vape'
'Tex'
'Stick'
'Puerto_'
'Legacy_'
'Lao'
'Junction_'
'Jamb'
'13th_'
'. ..._'
' =)_'
'ulin'
'spiel'
'smudge'
'shortbread_'
'sehen_'
'replicate_'
'recip'
'entertainer'
'chis'
'arious'
'TOR'
'PAN'
'NTE'
'MOU'
'Lib'
'Gone_'
'Convention_'
'110'
'region'
'prea'
'potent_'
'documentation_'
'deliberate'
'conde'
'ater'
'anat'
'Patric'
'Latin'
'45min_'
'..... '
'urse_'
'sunrise_'
'nger'
'mimi'
'loh'
'iba'
'abrupt_'
'Love'
'HL'
'urant_'
'tickle'
'pungent_'
'musician_'
'liche'
'housed_'
'foca'
'euse'
'eline'
'elephant'
'duper_'
'citizen_'
'Sirloin_'
'Mons'
'Hint_'
'HOLY_'
'Capitol_'
'AIN'
'.\10;     _'
'supp'
'softener_'
'profess'
'ous'
'html_'
'hose'
'gap'
'flyers_'
'communi'
'clouds_'
'USD'
'Saba'
'Revi'
'Hamm'
'Dino'
'App_'
'!!!!!!!'
' !!!  '
'änd'
'zest_'
'jalepeno_'
'introduc'
'ensures_'
'depressed_'
'critic'
'clown_'
'clot'
'blue'
'battl'
'asin'
'Treat_'
'TP'
'Rings_'
'Oat'
'Nico'
'Napa_'
'Drop'
'Bus_'
'Arthur_'
';) '
'!   \10;\10;_'
'veau_'
'vacuuming_'
'tter'
'swirl'
'reliab'
'nesse'
'mother'
'lth'
'ior_'
'hooks_'
'chos'
'boom'
'bisc'
'USPS_'
'Tonkatsu_'
'Libre'
'Farms_'
'---'
'tchy_'
'ley'
'into'
'grocer'
'flock'
'flie'
'fec'
'coarse_'
'Reminded_'
'Galaxy_'
'Eig'
'Disa'
'Chann'
'Booth'
'AMAZ'
'usted_'
'satis'
'posta'
'ouch'
'neuro'
'manning_'
'lube_'
'grief_'
'aufmerksam_'
'Tei'
'Tart_'
'THe'
'Reason_'
'Naked_'
'Mild'
'Grabb'
'Elm'
'Ding'
'Arti'
'vais_'
'undo'
'thl'
'stark_'
'scho'
'reiche'
'junkie_'
'inters'
'have'
'adopt_'
'Kimberly_'
'Elevat'
')!\10;\10;_'
'{_'
'wwww'
'whack'
'isle_'
'gris'
'explicit'
'crem'
'copie'
'athlet'
'appeti'
'\10;\10;\10;\10;'
'Unacceptable_'
'Pun'
'Parker_'
'PERS'
'Humb'
'Did'
'10x_'
'whiten'
'tix_'
'safe'
'pony_'
'modat'
'gag_'
'evaluat'
'diver'
'dissatisfaction_'
'bloated_'
'aris'
'Volcano_'
'Prep'
'OS_'
'Monroe_'
'whirl_'
'undert'
'sst'
'rsch'
'roaster'
'potty_'
'ponder'
'lodge_'
'impeccably_'
'detour_'
'danish_'
'committ'
'cashed_'
'brat'
'Wis'
'Vit'
'Tell'
'Row_'
'Growing_'
'Chocolat'
'Brilliant_'
'50th_'
'.\10;\10; '
'walkways_'
'vier_'
'tisch_'
'sme'
'sellers_'
'oush_'
'fantasy_'
'UND'
'Them'
'Pig'
'Inve'
'GOING_'
'Flower_'
'DQ_'
'Academy_'
'. ..'
'roa'
'portable_'
'import_'
'determin'
'alll'
'Roosevelt_'
'Luc'
'Jama'
'Figure'
'Chops'
'Cathy_'
'15mins_'
',) _'
'topic'
'tipp'
'minimal'
'jas_'
'iol'
'dicti'
'chuckle'
'brew'
'babysit'
'atmosph'
'Rog'
'Prai'
'Hortons_'
'Hard'
'öl'
'tastic_'
'remark_'
'proprietor_'
'overcome_'
'otti_'
'neys_'
'incomp'
'gib'
'distinctive_'
'anesthesi'
'act'
'Lenny_'
'Jav'
'Ih'
'Foster_'
'Benihana_'
':\10;\10;*'
'"! '
'      '
'än'
'surcharge_'
'story'
'ries'
'ragu_'
'pyramid_'
'protector_'
'parta'
'overhaul_'
'mail'
'hir'
'freedom_'
'credi'
'catche'
'casti'
'cam_'
'calmly_'
'announcement'
'Shady_'
'ROA'
'LIT'
'GLA'
'AD_'
'23rd_'
'syl'
'stenc'
'nondescript_'
'fest'
'bert'
'Vis'
'Mira'
'HELL'
'Dream'
'Copp'
'Coo'
'Adventure'
' (:'
'éta'
'uto'
'nick_'
'hemmed_'
'gb'
'gati'
'ffo'
'entsch'
'bombe'
'aller'
'absence_'
'TOW'
'Stadt'
'Shad'
'Scal'
'RIDICULOUS'
'READ_'
'Civic_'
'++'
' :-)\10;'
'xia'
'unprofessional'
'superf'
'rhubarb_'
'refin'
'nouve'
'nir'
'moco_'
'eren_'
'eding_'
'commerc'
'classif'
'cast'
'bomb'
'Spot'
'Pir'
'Kid'
'Ib'
'Fianc'
'EXCEPT'
'Buffets_'
'.\10;\10;***'
'vineg'
'tokens_'
'swift_'
'spie'
'saag_'
'rano'
'occassion'
'nter'
'natur'
'lti'
'lation'
'fluff'
'festivals_'
'etta_'
'degrad'
'conten'
'chers_'
'Size'
'MUS'
'Lee'
'ALO'
'78_'
'stall'
'resent'
'mum'
'mgm'
'ciders_'
'Ome'
'Monter'
'Merr'
'Mara'
'Frit'
'Doc'
'DG'
'Bott'
'urchin_'
'unke'
'tious_'
'rapidly_'
'prohibit'
'patches_'
'pakora_'
'nee'
'namesake_'
'munch'
'flimsy_'
'fille'
'cta'
'academ'
'YC'
'Tric'
'SIG'
'Mau'
'Main'
'Leche'
'Kiss'
'HOR'
'Got'
'thre'
'symp'
'seat'
'hb'
'gord'
'fter_'
'emu'
'delicous_'
'coughing_'
'alm'
'Ultra'
'PB'
'OLD_'
'NM'
'Angel'
'Alexa'
';-)'
'.\10;\10;\10;\10;'
'waft'
'underwear_'
'throwback_'
'riot'
'losse'
'lengths_'
'lace_'
'irk'
'hands'
'falafels_'
'endorse'
'debt_'
'beste'
'Sl'
'Nearly_'
'Murr'
'Mouss'
'Cast'
'willi'
'whimsical_'
'volunteer'
'trigger_'
'restar'
'platz_'
'omlette'
'musubi_'
'endl'
'encl'
'eagerly_'
'cosmopolitan_'
'cio_'
'cala'
'PERFECT'
'Oi'
'Mars'
'Emeril_'
'Cart'
'viande'
'taliz'
'strut'
'squeez'
'other'
'origin_'
'mange'
'heit_'
'grate'
'dw'
'Yuzu_'
'Quick'
'Oddly_'
'Hiro'
'Browns_'
'Base'
'ACTUAL'
'zufrieden_'
'wäre_'
'viti'
'temporarily_'
'sweep'
'steroids_'
'sear_'
'revenue_'
'puddle_'
'hhhh_'
'gobbled_'
'comment'
'asy'
'ack'
'Haupt'
'Forn'
'Custard_'
'Below_'
'Allo'
'ó'
'vacuums_'
'unparalleled_'
'two'
'oj'
'lender'
'commu'
'Wee'
'Vill'
'Rome_'
'Helen_'
'Gabriel_'
'5000_'
'uss_'
'thanking_'
'snoo'
'sam_'
'rig_'
'resource_'
'pitche'
'movements_'
'moral_'
'inflat'
'incomplete_'
'edition_'
'deleted_'
'complexity_'
'ciation_'
'STORE_'
'Jenna_'
'Adding_'
' ".'
'samm'
'rifle'
'rci'
'rapport_'
'obligated_'
'ndli'
'ici_'
'headlights_'
'Sommer_'
'QUALITY_'
'Phe'
'Insan'
'Info'
'voic'
'rien_'
'oming_'
'litter_'
'lions_'
'itia'
'eration_'
'deme'
'decency_'
'crawl'
'crackl'
']\10;\10;_'
'Text'
'Superma'
'Shoot'
'Criss_'
'Calvin_'
'Aged'
'spiked_'
'ribbon_'
'ramp'
'ogy'
'must'
'infa'
'hearti'
'employment_'
'cruel'
'chf'
'apparel_'
'Yol'
'Oliver_'
'Gallo_'
'GA_'
'Direc'
'...).'
'zier'
'unatt'
'tranquil_'
'termite'
'scant'
'receives_'
'orne'
'necessity_'
'mano'
'litt'
'kick'
'jic'
'ipo'
'entsp'
'demands_'
'dear'
'composed_'
'betr'
'abd'
'Gen_'
'Color_'
'AUT'
'89'
'...(_'
'!"'
' .'
'volo'
'ury'
'tossing_'
'strive_'
'ord'
'olat'
'manch'
'jewe'
'großen_'
'groß'
'coordinated_'
'ani_'
'Window_'
'Unre'
'Tori'
'TCH'
'Society_'
'Gas_'
'Crafts'
'Case_'
'Bik'
'Adri'
'): '
'vaccination'
'soni'
'profits_'
'pene'
'magi'
'gutte'
'emon_'
'cleveland_'
'butchered_'
'Salo'
'Gericht'
'GREE'
'Estate_'
'Books'
'Barba'
'BUS'
').. _'
'vra'
'tique_'
'techn'
'refurbished_'
'masks_'
'mage_'
'hog_'
'haut'
'gouda_'
'gep'
'Vap'
'ITI'
'Hank'
'Fogo_'
'Diamond'
'DS'
'Comple'
'Asso'
'16oz_'
'12th_'
'. \10;'
'Über'
'yelping_'
'terminals_'
'masse'
'marin'
'lightning_'
'coi'
'chimich'
'bst'
'broths_'
'atom'
'Map'
'Definately_'
'!" \10;'
' :\10;'
'stares_'
'slop_'
'rach'
'plot'
'perch_'
'grabs_'
'erto'
'clippers_'
'cheers_'
'bung'
'bulg'
'agréable_'
'Folks_'
'Empanada'
'Chatime_'
'12am_'
'éa'
'uteri'
'tad'
'surge'
'slim'
'minist'
'lade'
'deduct_'
'dau'
'bili'
'antibiotic_'
'Sna'
'Rib'
'RAN'
'Georgia_'
'Dined_'
'Berna'
'utiliz'
'upr'
'togo_'
'sneez'
'revel'
'point'
'ph_'
'negotiation'
'liberal'
'geste'
'frustrat'
'freshener'
'excruciating'
'erni'
'Stuff_'
'Pack_'
'Lover'
'Coch'
'(\10;\10;_'
'ätze_'
'thinne'
'tasks_'
'skate'
'pani'
'kei'
'infected_'
'gamey_'
'fellas_'
'disabilit'
'dehydrated_'
'client'
'boto'
'awfully_'
'Skin'
'PUR'
'MISTAKE_'
'Hardly_'
'AZ'
'spor'
'saut'
'rfest_'
'presentable_'
'pois'
'outd'
'mle'
'mata'
'kol'
'gai'
'Vision_'
'Male'
'Lieb'
'Gob'
'10mins_'
' )'
'weirde'
'tros_'
'rol'
'powder'
'penal'
'nude'
'monte'
'goin'
'examine_'
'end'
[...]
